{
  "version": "1.0",
  "truncation": null,
  "padding": null,
  "added_tokens": [],
  "normalizer": null,
  "pre_tokenizer": {
    "type": "Whitespace"
  },
  "post_processor": {
    "type": "ByteLevel",
    "add_prefix_space": true,
    "trim_offsets": true,
    "use_regex": true
  },
  "decoder": null,
  "model": {
    "type": "BPE",
    "dropout": null,
    "unk_token": null,
    "continuing_subword_prefix": null,
    "end_of_word_suffix": null,
    "fuse_unk": false,
    "byte_fallback": false,
    "ignore_merges": false,
    "vocab": {
      "\b": 0,
      "\u0010": 1,
      "!": 2,
      "\"": 3,
      "#": 4,
      "$": 5,
      "%": 6,
      "&": 7,
      "'": 8,
      "(": 9,
      ")": 10,
      "*": 11,
      "+": 12,
      ",": 13,
      "-": 14,
      ".": 15,
      "/": 16,
      "0": 17,
      "1": 18,
      "2": 19,
      "3": 20,
      "4": 21,
      "5": 22,
      "6": 23,
      "7": 24,
      "8": 25,
      "9": 26,
      ":": 27,
      ";": 28,
      "<": 29,
      "=": 30,
      ">": 31,
      "?": 32,
      "@": 33,
      "[": 34,
      "\\": 35,
      "]": 36,
      "^": 37,
      "_": 38,
      "`": 39,
      "a": 40,
      "b": 41,
      "c": 42,
      "d": 43,
      "e": 44,
      "f": 45,
      "g": 46,
      "h": 47,
      "i": 48,
      "j": 49,
      "k": 50,
      "l": 51,
      "m": 52,
      "n": 53,
      "o": 54,
      "p": 55,
      "q": 56,
      "r": 57,
      "s": 58,
      "t": 59,
      "u": 60,
      "v": 61,
      "w": 62,
      "x": 63,
      "y": 64,
      "z": 65,
      "{": 66,
      "|": 67,
      "}": 68,
      "~": 69,
      "": 70,
      "": 71,
      "": 72,
      "": 73,
      "": 74,
      "": 75,
      "": 76,
      "": 77,
      "": 78,
      "": 79,
      "¡": 80,
      "¢": 81,
      "£": 82,
      "¤": 83,
      "¦": 84,
      "§": 85,
      "¨": 86,
      "«": 87,
      "­": 88,
      "®": 89,
      "°": 90,
      "³": 91,
      "´": 92,
      "·": 93,
      "º": 94,
      "»": 95,
      "½": 96,
      "¾": 97,
      "¿": 98,
      "ß": 99,
      "à": 100,
      "á": 101,
      "â": 102,
      "ã": 103,
      "ä": 104,
      "å": 105,
      "æ": 106,
      "ç": 107,
      "è": 108,
      "é": 109,
      "ê": 110,
      "ë": 111,
      "ì": 112,
      "í": 113,
      "î": 114,
      "ï": 115,
      "ð": 116,
      "ñ": 117,
      "ò": 118,
      "ó": 119,
      "ô": 120,
      "õ": 121,
      "ö": 122,
      "ø": 123,
      "ù": 124,
      "ú": 125,
      "û": 126,
      "ü": 127,
      "ý": 128,
      "ō": 129,
      "–": 130,
      "‘": 131,
      "’": 132,
      "“": 133,
      "”": 134,
      "…": 135,
      "₤": 136,
      "": 137,
      "th": 138,
      "in": 139,
      "the": 140,
      "an": 141,
      "er": 142,
      "is": 143,
      "re": 144,
      "on": 145,
      "at": 146,
      "en": 147,
      "to": 148,
      "ou": 149,
      "ing": 150,
      "es": 151,
      "al": 152,
      "it": 153,
      "as": 154,
      "and": 155,
      "or": 156,
      "ar": 157,
      "of": 158,
      "ed": 159,
      "il": 160,
      "st": 161,
      "ly": 162,
      "ch": 163,
      "br": 164,
      "le": 165,
      "se": 166,
      "om": 167,
      "/>": 168,
      "be": 169,
      "mo": 170,
      "wh": 171,
      "ac": 172,
      "ic": 173,
      "ve": 174,
      "this": 175,
      "no": 176,
      "ie": 177,
      "ad": 178,
      "that": 179,
      "ver": 180,
      "ut": 181,
      "lo": 182,
      "ent": 183,
      "for": 184,
      "he": 185,
      "im": 186,
      "ion": 187,
      "ay": 188,
      "ter": 189,
      "am": 190,
      "gh": 191,
      "li": 192,
      "mov": 193,
      "was": 194,
      "id": 195,
      "un": 196,
      "wi": 197,
      "fil": 198,
      "/><": 199,
      "ro": 200,
      "film": 201,
      "ke": 202,
      "with": 203,
      "ab": 204,
      "el": 205,
      "ho": 206,
      "one": 207,
      "you": 208,
      "ld": 209,
      "ha": 210,
      "but": 211,
      "movie": 212,
      "ir": 213,
      "are": 214,
      "ge": 215,
      "su": 216,
      "out": 217,
      "ri": 218,
      "so": 219,
      "go": 220,
      ".<": 221,
      "pe": 222,
      "all": 223,
      "de": 224,
      "ce": 225,
      "com": 226,
      "ul": 227,
      "not": 228,
      "po": 229,
      "do": 230,
      "ally": 231,
      "ther": 232,
      "fe": 233,
      "tor": 234,
      "his": 235,
      "her": 236,
      "ts": 237,
      "ne": 238,
      "sc": 239,
      "od": 240,
      "ma": 241,
      "ome": 242,
      "tr": 243,
      "ill": 244,
      "man": 245,
      "ex": 246,
      "ap": 247,
      "if": 248,
      "ould": 249,
      "us": 250,
      "ur": 251,
      "me": 252,
      "act": 253,
      "have": 254,
      "some": 255,
      "..": 256,
      "fr": 257,
      "ust": 258,
      "per": 259,
      "who": 260,
      "pl": 261,
      "ght": 262,
      "est": 263,
      "we": 264,
      "ct": 265,
      "end": 266,
      "con": 267,
      "ess": 268,
      "by": 269,
      "very": 270,
      "thing": 271,
      "ain": 272,
      "di": 273,
      "they": 274,
      "wor": 275,
      "au": 276,
      "like": 277,
      "see": 278,
      "how": 279,
      "ere": 280,
      "ant": 281,
      "ell": 282,
      "tim": 283,
      "ag": 284,
      "ple": 285,
      "from": 286,
      "te": 287,
      "ok": 288,
      "art": 289,
      "ous": 290,
      "bo": 291,
      "up": 292,
      "there": 293,
      "pre": 294,
      "qu": 295,
      "ven": 296,
      "pro": 297,
      "ol": 298,
      "sh": 299,
      "ies": 300,
      "just": 301,
      "char": 302,
      "ast": 303,
      "ation": 304,
      "ack": 305,
      "what": 306,
      "ough": 307,
      "my": 308,
      "way": 309,
      "has": 310,
      "oun": 311,
      "ind": 312,
      "other": 313,
      "about": 314,
      "can": 315,
      "ate": 316,
      "ers": 317,
      "atch": 318,
      "any": 319,
      "ive": 320,
      "ig": 321,
      "ist": 322,
      "she": 323,
      "good": 324,
      "ment": 325,
      "der": 326,
      "more": 327,
      "ard": 328,
      "tory": 329,
      "co": 330,
      "get": 331,
      "acter": 332,
      "character": 333,
      "watch": 334,
      "now": 335,
      "when": 336,
      "ich": 337,
      "ine": 338,
      "ure": 339,
      "reat": 340,
      "gr": 341,
      "ong": 342,
      "jo": 343,
      "even": 344,
      "would": 345,
      "able": 346,
      "ss": 347,
      "time": 348,
      "ity": 349,
      "sp": 350,
      "ite": 351,
      "ak": 352,
      "story": 353,
      "wn": 354,
      "most": 355,
      "our": 356,
      "ful": 357,
      "ound": 358,
      "ame": 359,
      "um": 360,
      "cl": 361,
      "gu": 362,
      "int": 363,
      "ck": 364,
      "which": 365,
      "only": 366,
      "ty": 367,
      "wo": 368,
      "ye": 369,
      "ide": 370,
      "well": 371,
      "really": 372,
      "af": 373,
      "had": 374,
      "aw": 375,
      "ight": 376,
      "its": 377,
      "show": 378,
      "than": 379,
      "ble": 380,
      "their": 381,
      "scen": 382,
      "uch": 383,
      "were": 384,
      "pt": 385,
      "him": 386,
      "lot": 387,
      "play": 388,
      "av": 389,
      "ade": 390,
      "fo": 391,
      "cr": 392,
      "sel": 393,
      "ink": 394,
      "did": 395,
      "pr": 396,
      "over": 397,
      "does": 398,
      "ick": 399,
      "ious": 400,
      "don": 401,
      "look": 402,
      "itt": 403,
      "ep": 404,
      "age": 405,
      "dis": 406,
      "great": 407,
      "bad": 408,
      "cau": 409,
      "bl": 410,
      "bet": 411,
      "pp": 412,
      "ars": 413,
      "will": 414,
      "ence": 415,
      "off": 416,
      "ice": 417,
      "low": 418,
      "much": 419,
      "them": 420,
      "ass": 421,
      "ish": 422,
      "fir": 423,
      "cause": 424,
      "ci": 425,
      "dire": 426,
      "peo": 427,
      "could": 428,
      "every": 429,
      "people": 430,
      "know": 431,
      "been": 432,
      "real": 433,
      "...": 434,
      "into": 435,
      "also": 436,
      "first": 437,
      "because": 438,
      "mak": 439,
      "think": 440,
      "ber": 441,
      "ud": 442,
      "ser": 443,
      "make": 444,
      "ort": 445,
      "ves": 446,
      "ire": 447,
      "fun": 448,
      "son": 449,
      "made": 450,
      "wr": 451,
      "dr": 452,
      "then": 453,
      "thr": 454,
      "too": 455,
      "du": 456,
      "after": 457,
      "where": 458,
      "work": 459,
      "inter": 460,
      "ace": 461,
      "mar": 462,
      "fa": 463,
      "self": 464,
      "ile": 465,
      "part": 466,
      "str": 467,
      "ll": 468,
      "movies": 469,
      "ever": 470,
      "cre": 471,
      "say": 472,
      "seem": 473,
      "ated": 474,
      "vie": 475,
      "spe": 476,
      "ical": 477,
      "though": 478,
      "fl": 479,
      "ach": 480,
      "ps": 481,
      "actor": 482,
      "fin": 483,
      "characters": 484,
      "ren": 485,
      "view": 486,
      "ting": 487,
      "des": 488,
      "back": 489,
      "tain": 490,
      "love": 491,
      "ans": 492,
      "less": 493,
      "life": 494,
      "ving": 495,
      "two": 496,
      "ance": 497,
      "many": 498,
      "films": 499,
      "hor": 500,
      "plot": 501,
      "ang": 502,
      "acting": 503,
      "ny": 504,
      "seen": 505,
      "min": 506,
      "your": 507,
      "never": 508,
      "being": 509,
      "ary": 510,
      "day": 511,
      "here": 512,
      "sho": 513,
      "tal": 514,
      "bel": 515,
      "ces": 516,
      "best": 517,
      "mat": 518,
      "ittle": 519,
      "gi": 520,
      "little": 521,
      "),": 522,
      "through": 523,
      "ta": 524,
      ").": 525,
      "ction": 526,
      "ctor": 527,
      "new": 528,
      "tur": 529,
      "ree": 530,
      "try": 531,
      "cent": 532,
      "ens": 533,
      "may": 534,
      "point": 535,
      "19": 536,
      "igh": 537,
      "mis": 538,
      "iz": 539,
      "ily": 540,
      "kill": 541,
      "car": 542,
      "fore": 543,
      "ict": 544,
      "ually": 545,
      "ose": 546,
      "che": 547,
      "ved": 548,
      "while": 549,
      "ra": 550,
      "fer": 551,
      "still": 552,
      "ot": 553,
      "better": 554,
      "amer": 555,
      "ef": 556,
      "sur": 557,
      "gen": 558,
      "ning": 559,
      "fri": 560,
      "--": 561,
      "tru": 562,
      "won": 563,
      "should": 564,
      "perfor": 565,
      "under": 566,
      "old": 567,
      "ave": 568,
      "again": 569,
      "find": 570,
      "scene": 571,
      "mon": 572,
      "these": 573,
      "ild": 574,
      "cast": 575,
      "read": 576,
      "ase": 577,
      "want": 578,
      "come": 579,
      "ste": 580,
      "why": 581,
      "feel": 582,
      "augh": 583,
      "!!": 584,
      "op": 585,
      "ry": 586,
      "par": 587,
      "sim": 588,
      "scenes": 589,
      "vers": 590,
      "ertain": 591,
      "stand": 592,
      "ought": 593,
      "such": 594,
      "something": 595,
      "director": 596,
      "interest": 597,
      "10": 598,
      "happ": 599,
      "fam": 600,
      "cho": 601,
      "les": 602,
      "az": 603,
      "ian": 604,
      "ath": 605,
      "friend": 606,
      "irl": 607,
      "red": 608,
      "ev": 609,
      "tri": 610,
      "belie": 611,
      "ise": 612,
      "ably": 613,
      "girl": 614,
      "sto": 615,
      "ph": 616,
      "ions": 617,
      "scre": 618,
      "wom": 619,
      "joy": 620,
      "et": 621,
      "ason": 622,
      "ating": 623,
      "mus": 624,
      "turn": 625,
      "ense": 626,
      "performan": 627,
      "ror": 628,
      "down": 629,
      "got": 630,
      "pret": 631,
      "those": 632,
      "star": 633,
      "arly": 634,
      "ins": 635,
      "ob": 636,
      "watching": 637,
      "tak": 638,
      "war": 639,
      "actors": 640,
      "doesn": 641,
      "funny": 642,
      "years": 643,
      "big": 644,
      "pos": 645,
      "gl": 646,
      "times": 647,
      "comm": 648,
      "ents": 649,
      "inal": 650,
      "ip": 651,
      "ial": 652,
      "mem": 653,
      "ash": 654,
      "ng": 655,
      "didn": 656,
      "before": 657,
      "guy": 658,
      "enjoy": 659,
      "long": 660,
      "em": 661,
      "set": 662,
      "another": 663,
      "att": 664,
      "young": 665,
      "comed": 666,
      "nothing": 667,
      "vi": 668,
      "bu": 669,
      "makes": 670,
      "ways": 671,
      "ater": 672,
      "actually": 673,
      "own": 674,
      "high": 675,
      "going": 676,
      "produ": 677,
      "orig": 678,
      "vis": 679,
      "bit": 680,
      "world": 681,
      "put": 682,
      "col": 683,
      "king": 684,
      "fect": 685,
      "hu": 686,
      "few": 687,
      "ual": 688,
      "sm": 689,
      "right": 690,
      "exc": 691,
      "action": 692,
      "same": 693,
      "let": 694,
      "sa": 695,
      "dif": 696,
      "comes": 697,
      "icul": 698,
      "laugh": 699,
      "rel": 700,
      "hard": 701,
      "cor": 702,
      "wood": 703,
      "je": 704,
      "far": 705,
      "appe": 706,
      "light": 707,
      "sub": 708,
      "sin": 709,
      "cts": 710,
      "sing": 711,
      "cle": 712,
      "**": 713,
      "ted": 714,
      "ute": 715,
      "bor": 716,
      "por": 717,
      "pect": 718,
      "screen": 719,
      "horror": 720,
      "quite": 721,
      "comple": 722,
      "original": 723,
      "things": 724,
      "kid": 725,
      "ween": 726,
      "need": 727,
      "pretty": 728,
      "fact": 729,
      "ress": 730,
      "writ": 731,
      "ia": 732,
      "around": 733,
      "person": 734,
      "pa": 735,
      "seems": 736,
      "hel": 737,
      "mind": 738,
      "thought": 739,
      "sure": 740,
      "ript": 741,
      "wonder": 742,
      "ks": 743,
      "ten": 744,
      "aut": 745,
      "take": 746,
      "howe": 747,
      "ner": 748,
      "inv": 749,
      "however": 750,
      "beg": 751,
      "give": 752,
      "kind": 753,
      "tell": 754,
      "cial": 755,
      "ster": 756,
      "bas": 757,
      "cept": 758,
      "cont": 759,
      "enough": 760,
      "ically": 761,
      "saw": 762,
      "fort": 763,
      "pare": 764,
      "series": 765,
      "gets": 766,
      "both": 767,
      "class": 768,
      "sex": 769,
      "ody": 770,
      "interesting": 771,
      "between": 772,
      "americ": 773,
      "cour": 774,
      "ward": 775,
      "care": 776,
      "press": 777,
      "ately": 778,
      "script": 779,
      "must": 780,
      "hand": 781,
      "ness": 782,
      "vel": 783,
      "main": 784,
      "ations": 785,
      "clo": 786,
      "child": 787,
      "mom": 788,
      "worth": 789,
      "beaut": 790,
      "boy": 791,
      "expect": 792,
      "without": 793,
      "done": 794,
      "cess": 795,
      "ced": 796,
      "cine": 797,
      "form": 798,
      "comedy": 799,
      "used": 800,
      "reason": 801,
      "grap": 802,
      "add": 803,
      "always": 804,
      "ending": 805,
      "music": 806,
      "call": 807,
      "line": 808,
      "family": 809,
      "isn": 810,
      "role": 811,
      "lead": 812,
      "night": 813,
      "vious": 814,
      "bar": 815,
      "last": 816,
      "illi": 817,
      "ale": 818,
      "row": 819,
      "hy": 820,
      "almost": 821,
      "mas": 822,
      "book": 823,
      "pol": 824,
      "\",": 825,
      "cap": 826,
      "sequ": 827,
      "least": 828,
      "ouse": 829,
      "tem": 830,
      "led": 831,
      "wer": 832,
      "whole": 833,
      "making": 834,
      "utes": 835,
      "head": 836,
      "ff": 837,
      "start": 838,
      "might": 839,
      "ger": 840,
      "sound": 841,
      "ings": 842,
      "alo": 843,
      "coun": 844,
      "sid": 845,
      "ue": 846,
      "val": 847,
      "use": 848,
      "vo": 849,
      "away": 850,
      "run": 851,
      "differ": 852,
      "prob": 853,
      "spo": 854,
      "lin": 855,
      "na": 856,
      "mot": 857,
      "ying": 858,
      "minutes": 859,
      "woman": 860,
      "complete": 861,
      "anything": 862,
      "lly": 863,
      "ible": 864,
      "yes": 865,
      "tv": 866,
      "super": 867,
      "pie": 868,
      "sent": 869,
      "audi": 870,
      "since": 871,
      "espe": 872,
      "hal": 873,
      "med": 874,
      "performance": 875,
      "ane": 876,
      "blo": 877,
      "joh": 878,
      "sy": 879,
      "chr": 880,
      "fol": 881,
      "00": 882,
      "stu": 883,
      "ms": 884,
      "sol": 885,
      "ature": 886,
      "probably": 887,
      "ug": 888,
      "ign": 889,
      "men": 890,
      "entertain": 891,
      "dec": 892,
      "rible": 893,
      "cond": 894,
      "yet": 895,
      "mean": 896,
      "tit": 897,
      "bre": 898,
      "tw": 899,
      "iful": 900,
      "land": 901,
      "poss": 902,
      "came": 903,
      "den": 904,
      "john": 905,
      "ional": 906,
      "ton": 907,
      "house": 908,
      "poor": 909,
      "dram": 910,
      "wal": 911,
      "rather": 912,
      "found": 913,
      "worst": 914,
      "played": 915,
      "cially": 916,
      "oney": 917,
      "ange": 918,
      "\".": 919,
      "pris": 920,
      "ked": 921,
      "place": 922,
      "unt": 923,
      "ark": 924,
      "ments": 925,
      "top": 926,
      "uring": 927,
      "epis": 928,
      "sl": 929,
      "dan": 930,
      "ult": 931,
      "cut": 932,
      "anyone": 933,
      "mer": 934,
      "cu": 935,
      "sense": 936,
      "ped": 937,
      "beautiful": 938,
      "mur": 939,
      "tre": 940,
      "rest": 941,
      "having": 942,
      "cur": 943,
      "har": 944,
      "each": 945,
      "ative": 946,
      "mor": 947,
      "anim": 948,
      "dialo": 949,
      "happen": 950,
      "hum": 951,
      "ft": 952,
      "course": 953,
      "body": 954,
      "although": 955,
      "especially": 956,
      "bud": 957,
      "keep": 958,
      "side": 959,
      "believe": 960,
      "looking": 961,
      "lu": 962,
      "second": 963,
      "father": 964,
      "job": 965,
      "pict": 966,
      "nor": 967,
      "different": 968,
      "trying": 969,
      "direct": 970,
      "dv": 971,
      "goes": 972,
      "year": 973,
      "black": 974,
      ".\"": 975,
      "imp": 976,
      "istic": 977,
      "peri": 978,
      "looks": 979,
      "dvd": 980,
      "ither": 981,
      "fall": 982,
      "human": 983,
      "ney": 984,
      "fan": 985,
      "sup": 986,
      "plays": 987,
      "member": 988,
      "fully": 989,
      "true": 990,
      "creat": 991,
      "money": 992,
      "posed": 993,
      "proble": 994,
      "commend": 995,
      "imag": 996,
      "toge": 997,
      "together": 998,
      "ingly": 999,
      "maybe": 1000,
      "once": 1001,
      "someone": 1002,
      "wasn": 1003,
      "certain": 1004,
      "ele": 1005,
      "vin": 1006,
      "miss": 1007,
      "ics": 1008,
      "stead": 1009,
      "everything": 1010,
      "nice": 1011,
      "usu": 1012,
      "half": 1013,
      "shows": 1014,
      "ear": 1015,
      "follow": 1016,
      "three": 1017,
      "fects": 1018,
      "perfect": 1019,
      "american": 1020,
      "fav": 1021,
      "vide": 1022,
      "pul": 1023,
      "rom": 1024,
      "amp": 1025,
      "sty": 1026,
      "ond": 1027,
      "fel": 1028,
      "recommend": 1029,
      "bly": 1030,
      "dead": 1031,
      "watched": 1032,
      "version": 1033,
      "sit": 1034,
      "death": 1035,
      "rele": 1036,
      "bur": 1037,
      "obvious": 1038,
      "later": 1039,
      "special": 1040,
      "takes": 1041,
      "plain": 1042,
      "ants": 1043,
      "everyone": 1044,
      "plo": 1045,
      "ca": 1046,
      "la": 1047,
      "wife": 1048,
      "iting": 1049,
      "io": 1050,
      "effects": 1051,
      "sha": 1052,
      "ality": 1053,
      "said": 1054,
      "paren": 1055,
      "audience": 1056,
      "spect": 1057,
      "cy": 1058,
      "wa": 1059,
      "understand": 1060,
      "instead": 1061,
      "excell": 1062,
      "review": 1063,
      "ni": 1064,
      "ank": 1065,
      "gre": 1066,
      "ilar": 1067,
      "word": 1068,
      "piece": 1069,
      "hour": 1070,
      "ru": 1071,
      "rid": 1072,
      "cou": 1073,
      "short": 1074,
      "shot": 1075,
      "ates": 1076,
      "himself": 1077,
      "mi": 1078,
      "else": 1079,
      "others": 1080,
      "simp": 1081,
      "help": 1082,
      "left": 1083,
      "gy": 1084,
      "incl": 1085,
      "ism": 1086,
      "ship": 1087,
      "ames": 1088,
      "gener": 1089,
      "sk": 1090,
      "que": 1091,
      "excellent": 1092,
      "during": 1093,
      "gue": 1094,
      "begin": 1095,
      "als": 1096,
      "tray": 1097,
      "camer": 1098,
      "heart": 1099,
      "seeing": 1100,
      "ences": 1101,
      "cer": 1102,
      "llywood": 1103,
      "defin": 1104,
      "fre": 1105,
      "pass": 1106,
      "hero": 1107,
      "itch": 1108,
      "eas": 1109,
      "home": 1110,
      "ah": 1111,
      "entire": 1112,
      "ling": 1113,
      "idea": 1114,
      "face": 1115,
      "serious": 1116,
      "ross": 1117,
      "ned": 1118,
      "remember": 1119,
      "fortun": 1120,
      "ited": 1121,
      "invol": 1122,
      "0s": 1123,
      "....": 1124,
      "ters": 1125,
      "cal": 1126,
      "ists": 1127,
      "cing": 1128,
      "dre": 1129,
      "stup": 1130,
      "production": 1131,
      "picture": 1132,
      "ition": 1133,
      "omb": 1134,
      "using": 1135,
      "ired": 1136,
      "simply": 1137,
      "ore": 1138,
      "given": 1139,
      "fair": 1140,
      "suc": 1141,
      "sil": 1142,
      "stupid": 1143,
      "song": 1144,
      "win": 1145,
      "ird": 1146,
      "friends": 1147,
      "sci": 1148,
      "disap": 1149,
      "attem": 1150,
      "air": 1151,
      "hollywood": 1152,
      "lack": 1153,
      "video": 1154,
      "xt": 1155,
      "pport": 1156,
      "vic": 1157,
      "wrong": 1158,
      "dou": 1159,
      "ject": 1160,
      "sad": 1161,
      "full": 1162,
      "portray": 1163,
      "dark": 1164,
      "open": 1165,
      "mess": 1166,
      "sat": 1167,
      "num": 1168,
      "budget": 1169,
      "completely": 1170,
      "along": 1171,
      "ons": 1172,
      "supposed": 1173,
      "disappoint": 1174,
      "ones": 1175,
      "ends": 1176,
      "either": 1177,
      "absol": 1178,
      "except": 1179,
      "scho": 1180,
      "kids": 1181,
      "band": 1182,
      "consid": 1183,
      "mother": 1184,
      "fight": 1185,
      "dri": 1186,
      "school": 1187,
      "absolute": 1188,
      "boring": 1189,
      "classic": 1190,
      "amaz": 1191,
      "women": 1192,
      "bro": 1193,
      "small": 1194,
      "sul": 1195,
      "performances": 1196,
      "particul": 1197,
      "cus": 1198,
      "pain": 1199,
      "fail": 1200,
      "mid": 1201,
      "tic": 1202,
      "consider": 1203,
      "itten": 1204,
      "camera": 1205,
      "surpris": 1206,
      "awful": 1207,
      "ries": 1208,
      "lig": 1209,
      "until": 1210,
      "ident": 1211,
      "comp": 1212,
      "power": 1213,
      "exam": 1214,
      "ley": 1215,
      "live": 1216,
      "graphy": 1217,
      "viol": 1218,
      "vent": 1219,
      "cas": 1220,
      "emot": 1221,
      "murder": 1222,
      "ler": 1223,
      "truly": 1224,
      "stars": 1225,
      "eng": 1226,
      "ready": 1227,
      "christ": 1228,
      "velo": 1229,
      "name": 1230,
      "favor": 1231,
      "jack": 1232,
      "case": 1233,
      "mich": 1234,
      "cover": 1235,
      "god": 1236,
      "couple": 1237,
      "present": 1238,
      "next": 1239,
      "tra": 1240,
      "tom": 1241,
      "mr": 1242,
      "haps": 1243,
      "typ": 1244,
      "hope": 1245,
      "mag": 1246,
      "playing": 1247,
      "definite": 1248,
      "ode": 1249,
      "cli": 1250,
      "fant": 1251,
      "sever": 1252,
      "ming": 1253,
      "dy": 1254,
      "perhaps": 1255,
      "getting": 1256,
      "gar": 1257,
      "develo": 1258,
      "ors": 1259,
      "slow": 1260,
      "ities": 1261,
      "feature": 1262,
      "flick": 1263,
      "moments": 1264,
      "written": 1265,
      "deser": 1266,
      "episode": 1267,
      "wonderful": 1268,
      "sort": 1269,
      "ides": 1270,
      "quest": 1271,
      "room": 1272,
      "lines": 1273,
      "bed": 1274,
      "fi": 1275,
      "includ": 1276,
      "terrible": 1277,
      "bert": 1278,
      "dist": 1279,
      "ory": 1280,
      "uni": 1281,
      "often": 1282,
      "doing": 1283,
      "loved": 1284,
      "style": 1285,
      "ush": 1286,
      "iness": 1287,
      "spir": 1288,
      "humor": 1289,
      "male": 1290,
      "strong": 1291,
      "town": 1292,
      "ring": 1293,
      "ize": 1294,
      "early": 1295,
      "felt": 1296,
      "cop": 1297,
      "non": 1298,
      "drama": 1299,
      "oh": 1300,
      "mention": 1301,
      "liked": 1302,
      "gives": 1303,
      "deli": 1304,
      "ital": 1305,
      "ility": 1306,
      "actress": 1307,
      "unch": 1308,
      "mark": 1309,
      "plan": 1310,
      "definitely": 1311,
      "dav": 1312,
      "talent": 1313,
      "cinemat": 1314,
      "ased": 1315,
      "brilli": 1316,
      "unfortun": 1317,
      "master": 1318,
      "impress": 1319,
      "experi": 1320,
      "guess": 1321,
      "break": 1322,
      "aged": 1323,
      "oc": 1324,
      "itself": 1325,
      "turns": 1326,
      "appear": 1327,
      "lost": 1328,
      "ese": 1329,
      "pri": 1330,
      "coming": 1331,
      "reg": 1332,
      "leg": 1333,
      "ages": 1334,
      "become": 1335,
      "dialogue": 1336,
      "children": 1337,
      "crim": 1338,
      "finally": 1339,
      "log": 1340,
      "white": 1341,
      "desp": 1342,
      "cinema": 1343,
      "credi": 1344,
      "gun": 1345,
      ",\"": 1346,
      "hon": 1347,
      "title": 1348,
      "close": 1349,
      "list": 1350,
      "thrill": 1351,
      "tly": 1352,
      "couldn": 1353,
      "extre": 1354,
      "dep": 1355,
      "wish": 1356,
      "possible": 1357,
      "ier": 1358,
      "ith": 1359,
      "fine": 1360,
      "went": 1361,
      "pu": 1362,
      "blood": 1363,
      "van": 1364,
      "direction": 1365,
      "absolutely": 1366,
      "evil": 1367,
      "against": 1368,
      "ground": 1369,
      "waste": 1370,
      "worse": 1371,
      "fac": 1372,
      "certainly": 1373,
      "psy": 1374,
      "killer": 1375,
      "called": 1376,
      "conf": 1377,
      "problem": 1378,
      "ael": 1379,
      "entertaining": 1380,
      "sis": 1381,
      "brilliant": 1382,
      "pur": 1383,
      "teen": 1384,
      "overall": 1385,
      "ben": 1386,
      "ball": 1387,
      "ended": 1388,
      "cred": 1389,
      "based": 1390,
      "sor": 1391,
      "tern": 1392,
      "fans": 1393,
      "relation": 1394,
      "hit": 1395,
      "spoil": 1396,
      "os": 1397,
      "tries": 1398,
      "beginning": 1399,
      "lear": 1400,
      "extreme": 1401,
      "myster": 1402,
      "ann": 1403,
      "several": 1404,
      "success": 1405,
      "lad": 1406,
      "lives": 1407,
      "known": 1408,
      "ized": 1409,
      "nam": 1410,
      "support": 1411,
      "prom": 1412,
      "sou": 1413,
      "track": 1414,
      "works": 1415,
      "hind": 1416,
      "vable": 1417,
      "die": 1418,
      "dict": 1419,
      "gg": 1420,
      "ues": 1421,
      "ention": 1422,
      "pat": 1423,
      "nat": 1424,
      "writer": 1425,
      "genre": 1426,
      "lar": 1427,
      "already": 1428,
      "selves": 1429,
      "michael": 1430,
      "mal": 1431,
      "becomes": 1432,
      "effect": 1433,
      "wanted": 1434,
      "engl": 1435,
      "example": 1436,
      "arch": 1437,
      "vision": 1438,
      "ture": 1439,
      "days": 1440,
      "despite": 1441,
      "sum": 1442,
      "seemed": 1443,
      "zomb": 1444,
      "throughout": 1445,
      "ude": 1446,
      "key": 1447,
      "dream": 1448,
      "jor": 1449,
      "tent": 1450,
      "touch": 1451,
      "past": 1452,
      "unfortunately": 1453,
      "vill": 1454,
      "writing": 1455,
      "ief": 1456,
      "mentary": 1457,
      "attempt": 1458,
      "daugh": 1459,
      "crap": 1460,
      "tech": 1461,
      "rif": 1462,
      "ific": 1463,
      "final": 1464,
      "game": 1465,
      "susp": 1466,
      "history": 1467,
      "adm": 1468,
      "hold": 1469,
      "tot": 1470,
      "quality": 1471,
      "pick": 1472,
      "200": 1473,
      "amazing": 1474,
      "rock": 1475,
      "anno": 1476,
      "crit": 1477,
      "vir": 1478,
      "type": 1479,
      "foot": 1480,
      "scar": 1481,
      "bi": 1482,
      "allow": 1483,
      "indi": 1484,
      "guys": 1485,
      "ided": 1486,
      "totally": 1487,
      "convin": 1488,
      "soon": 1489,
      "bus": 1490,
      "iv": 1491,
      "aim": 1492,
      "atic": 1493,
      "und": 1494,
      "deal": 1495,
      "colle": 1496,
      "stay": 1497,
      "wants": 1498,
      "si": 1499,
      "behind": 1500,
      ").<": 1501,
      "wise": 1502,
      "usual": 1503,
      "explo": 1504,
      "viewer": 1505,
      "aring": 1506,
      "antic": 1507,
      "pho": 1508,
      "late": 1509,
      "ino": 1510,
      "girls": 1511,
      "fig": 1512,
      "city": 1513,
      "stuff": 1514,
      "ull": 1515,
      "orge": 1516,
      "rating": 1517,
      "ek": 1518,
      "sle": 1519,
      "prof": 1520,
      "novel": 1521,
      "docu": 1522,
      "parts": 1523,
      "bb": 1524,
      "enjoyed": 1525,
      "contin": 1526,
      "import": 1527,
      "today": 1528,
      "mil": 1529,
      "trans": 1530,
      "unk": 1531,
      "ket": 1532,
      "intel": 1533,
      "eyes": 1534,
      "none": 1535,
      "hop": 1536,
      "mad": 1537,
      "favorite": 1538,
      "ding": 1539,
      "apparen": 1540,
      "!<": 1541,
      "ord": 1542,
      "dam": 1543,
      "hot": 1544,
      "police": 1545,
      "speak": 1546,
      "starts": 1547,
      "gave": 1548,
      "step": 1549,
      "sometimes": 1550,
      "directed": 1551,
      "etc": 1552,
      "??": 1553,
      "level": 1554,
      "swe": 1555,
      "del": 1556,
      "ali": 1557,
      "horrible": 1558,
      "event": 1559,
      "bal": 1560,
      "ris": 1561,
      "incredi": 1562,
      "arr": 1563,
      "grou": 1564,
      "moment": 1565,
      "vol": 1566,
      "ow": 1567,
      "situ": 1568,
      "exact": 1569,
      "thinking": 1570,
      "chang": 1571,
      "themselves": 1572,
      "decent": 1573,
      "stories": 1574,
      "ham": 1575,
      "ried": 1576,
      "pay": 1577,
      "figure": 1578,
      "ago": 1579,
      "predict": 1580,
      "major": 1581,
      "mc": 1582,
      "sw": 1583,
      "voice": 1584,
      "musical": 1585,
      "daughter": 1586,
      "hilar": 1587,
      "killed": 1588,
      "leav": 1589,
      "obviously": 1590,
      "brit": 1591,
      "matter": 1592,
      "cult": 1593,
      "feeling": 1594,
      "ination": 1595,
      "score": 1596,
      "law": 1597,
      "pose": 1598,
      "rent": 1599,
      "highly": 1600,
      "myself": 1601,
      "believable": 1602,
      "hus": 1603,
      "mill": 1604,
      "cinemato": 1605,
      "stud": 1606,
      "fron": 1607,
      "brother": 1608,
      "hell": 1609,
      "anger": 1610,
      "four": 1611,
      "inst": 1612,
      "heard": 1613,
      "paul": 1614,
      "roll": 1615,
      "looked": 1616,
      "stop": 1617,
      "aren": 1618,
      "taking": 1619,
      "weak": 1620,
      "ridicul": 1621,
      "order": 1622,
      "graph": 1623,
      ".)": 1624,
      "tail": 1625,
      "bring": 1626,
      "check": 1627,
      "appro": 1628,
      "tele": 1629,
      "umb": 1630,
      "move": 1631,
      "ery": 1632,
      "anyway": 1633,
      "strange": 1634,
      "explain": 1635,
      "gn": 1636,
      "jok": 1637,
      "var": 1638,
      "avo": 1639,
      "oper": 1640,
      "roles": 1641,
      "took": 1642,
      "says": 1643,
      "james": 1644,
      "leave": 1645,
      "free": 1646,
      "desc": 1647,
      "husband": 1648,
      "bers": 1649,
      "mart": 1650,
      "living": 1651,
      "antly": 1652,
      "fut": 1653,
      "lee": 1654,
      "uses": 1655,
      "rated": 1656,
      "polit": 1657,
      "cannot": 1658,
      "ridiculous": 1659,
      "cool": 1660,
      "dev": 1661,
      "violence": 1662,
      "astic": 1663,
      "ail": 1664,
      "ker": 1665,
      "recent": 1666,
      "told": 1667,
      "sav": 1668,
      "whe": 1669,
      "ished": 1670,
      "shock": 1671,
      "ared": 1672,
      "forget": 1673,
      "ake": 1674,
      "lan": 1675,
      "happens": 1676,
      "involved": 1677,
      "particularly": 1678,
      "ret": 1679,
      "season": 1680,
      "ys": 1681,
      "happened": 1682,
      "experience": 1683,
      "chance": 1684,
      "gore": 1685,
      "makers": 1686,
      "extremely": 1687,
      "dest": 1688,
      "lou": 1689,
      "wouldn": 1690,
      "moder": 1691,
      "opin": 1692,
      "alone": 1693,
      "ards": 1694,
      "bab": 1695,
      "tract": 1696,
      "happy": 1697,
      "res": 1698,
      "honest": 1699,
      "hilarious": 1700,
      "fire": 1701,
      "thor": 1702,
      "ints": 1703,
      "change": 1704,
      "david": 1705,
      "resul": 1706,
      "chard": 1707,
      "country": 1708,
      "including": 1709,
      "group": 1710,
      "dle": 1711,
      "please": 1712,
      "turned": 1713,
      "memor": 1714,
      "natur": 1715,
      "deep": 1716,
      "sym": 1717,
      "bat": 1718,
      "cheap": 1719,
      "sequel": 1720,
      "itive": 1721,
      "jap": 1722,
      "quick": 1723,
      "hen": 1724,
      "mist": 1725,
      "simple": 1726,
      "stree": 1727,
      "expected": 1728,
      "sn": 1729,
      "ung": 1730,
      "develop": 1731,
      "pleas": 1732,
      "doub": 1733,
      "annoying": 1734,
      "wit": 1735,
      "usually": 1736,
      "stra": 1737,
      "cost": 1738,
      "cat": 1739,
      "richard": 1740,
      "dog": 1741,
      "illiam": 1742,
      "...<": 1743,
      "beat": 1744,
      "pal": 1745,
      "urb": 1746,
      "save": 1747,
      "stru": 1748,
      "fast": 1749,
      "earth": 1750,
      "english": 1751,
      "photo": 1752,
      "abo": 1753,
      "number": 1754,
      "ls": 1755,
      "japan": 1756,
      "lik": 1757,
      "career": 1758,
      "frank": 1759,
      "fur": 1760,
      "realistic": 1761,
      "huge": 1762,
      "near": 1763,
      "similar": 1764,
      "ax": 1765,
      "ied": 1766,
      "dro": 1767,
      "seriously": 1768,
      "treat": 1769,
      "secre": 1770,
      "rip": 1771,
      "taken": 1772,
      "jud": 1773,
      "ances": 1774,
      "lie": 1775,
      "scary": 1776,
      "reality": 1777,
      "running": 1778,
      "eye": 1779,
      "ky": 1780,
      "apart": 1781,
      "clear": 1782,
      "released": 1783,
      "exactly": 1784,
      "wes": 1785,
      "shown": 1786,
      "azy": 1787,
      "modern": 1788,
      "ational": 1789,
      "198": 1790,
      "20": 1791,
      "box": 1792,
      "yourself": 1793,
      "rench": 1794,
      "whose": 1795,
      "cinematography": 1796,
      "hours": 1797,
      "wards": 1798,
      "pped": 1799,
      "opening": 1800,
      "across": 1801,
      "jokes": 1802,
      "hear": 1803,
      "shots": 1804,
      "learn": 1805,
      "sch": 1806,
      "197": 1807,
      "episod": 1808,
      "ral": 1809,
      "ator": 1810,
      "team": 1811,
      "hom": 1812,
      "sam": 1813,
      "gold": 1814,
      "relationship": 1815,
      "opinion": 1816,
      "somewhat": 1817,
      "typical": 1818,
      "william": 1819,
      "build": 1820,
      "started": 1821,
      "words": 1822,
      "straight": 1823,
      "ili": 1824,
      "bey": 1825,
      "itting": 1826,
      "villain": 1827,
      "sen": 1828,
      "exist": 1829,
      "oo": 1830,
      "middle": 1831,
      "possi": 1832,
      "pres": 1833,
      "talking": 1834,
      "lit": 1835,
      "mee": 1836,
      "iety": 1837,
      "enty": 1838,
      "plac": 1839,
      "documentary": 1840,
      "robert": 1841,
      "important": 1842,
      "clich": 1843,
      "plic": 1844,
      "due": 1845,
      "odd": 1846,
      "finds": 1847,
      "bill": 1848,
      "among": 1849,
      "dom": 1850,
      "pac": 1851,
      "sold": 1852,
      "female": 1853,
      "saying": 1854,
      "ina": 1855,
      "famous": 1856,
      "mostly": 1857,
      "sign": 1858,
      "episodes": 1859,
      "comment": 1860,
      "loc": 1861,
      "appre": 1862,
      "predictable": 1863,
      "tle": 1864,
      "suspense": 1865,
      "five": 1866,
      "ju": 1867,
      "gan": 1868,
      "rob": 1869,
      "bot": 1870,
      "respect": 1871,
      "ines": 1872,
      "ield": 1873,
      "rap": 1874,
      "tar": 1875,
      "stick": 1876,
      "roy": 1877,
      "single": 1878,
      "sequence": 1879,
      "publ": 1880,
      "talk": 1881,
      "batt": 1882,
      "yor": 1883,
      "space": 1884,
      "popul": 1885,
      "prov": 1886,
      "intellig": 1887,
      "ken": 1888,
      "appears": 1889,
      "apparently": 1890,
      "disappointed": 1891,
      "camp": 1892,
      "ref": 1893,
      "necess": 1894,
      "local": 1895,
      "remind": 1896,
      "future": 1897,
      "events": 1898,
      "dialog": 1899,
      "atmo": 1900,
      "sets": 1901,
      "!\"": 1902,
      "avoid": 1903,
      "comic": 1904,
      "songs": 1905,
      "atmosp": 1906,
      "hi": 1907,
      "attention": 1908,
      "basically": 1909,
      "equ": 1910,
      "utter": 1911,
      "creep": 1912,
      "giving": 1913,
      "!!!!": 1914,
      "television": 1915,
      "romantic": 1916,
      "uro": 1917,
      "ump": 1918,
      "knows": 1919,
      "falls": 1920,
      "british": 1921,
      "gang": 1922,
      "199": 1923,
      "lady": 1924,
      "supporting": 1925,
      "clearly": 1926,
      "knew": 1927,
      "front": 1928,
      "thriller": 1929,
      "sexual": 1930,
      "stage": 1931,
      "compare": 1932,
      "easily": 1933,
      "points": 1934,
      "match": 1935,
      "eless": 1936,
      "question": 1937,
      "ised": 1938,
      "silly": 1939,
      "****": 1940,
      "tells": 1941,
      "problems": 1942,
      "hood": 1943,
      "suck": 1944,
      "grand": 1945,
      "diff": 1946,
      "detail": 1947,
      "shi": 1948,
      "andy": 1949,
      "moving": 1950,
      "acy": 1951,
      "ctive": 1952,
      "cru": 1953,
      "mary": 1954,
      "chris": 1955,
      "ext": 1956,
      "agon": 1957,
      "entertainment": 1958,
      "ford": 1959,
      "ined": 1960,
      "ask": 1961,
      "flo": 1962,
      "aver": 1963,
      "appreci": 1964,
      "erial": 1965,
      "ently": 1966,
      "upon": 1967,
      "train": 1968,
      "asy": 1969,
      "george": 1970,
      "anna": 1971,
      "attack": 1972,
      "beyond": 1973,
      "ba": 1974,
      "ost": 1975,
      "post": 1976,
      "effort": 1977,
      "rad": 1978,
      "thetic": 1979,
      "oscar": 1980,
      "ures": 1981,
      "narr": 1982,
      "unlike": 1983,
      "const": 1984,
      "prise": 1985,
      "ze": 1986,
      "usion": 1987,
      "lim": 1988,
      "state": 1989,
      "soc": 1990,
      "whether": 1991,
      "water": 1992,
      "zz": 1993,
      "ability": 1994,
      "ultim": 1995,
      "theat": 1996,
      "easy": 1997,
      "claim": 1998,
      "hate": 1999,
      "sequences": 2000,
      "twist": 2001,
      "dull": 2002,
      "pping": 2003,
      "carto": 2004,
      "mystery": 2005,
      "mel": 2006,
      "search": 2007,
      "material": 2008,
      "afr": 2009,
      "wait": 2010,
      "fly": 2011,
      "intro": 2012,
      "cident": 2013,
      "ged": 2014,
      "rich": 2015,
      "enjoyable": 2016,
      "named": 2017,
      "period": 2018,
      "difficul": 2019,
      "ana": 2020,
      "adap": 2021,
      "joe": 2022,
      "needs": 2023,
      "setting": 2024,
      "york": 2025,
      "throw": 2026,
      "cliché": 2027,
      "deed": 2028,
      "fest": 2029,
      "lies": 2030,
      "previous": 2031,
      "bes": 2032,
      "working": 2033,
      "studi": 2034,
      "dden": 2035,
      "within": 2036,
      "trou": 2037,
      "app": 2038,
      "french": 2039,
      "jer": 2040,
      "actual": 2041,
      "kept": 2042,
      "subject": 2043,
      "message": 2044,
      "theater": 2045,
      "met": 2046,
      "ott": 2047,
      "sister": 2048,
      "tale": 2049,
      "ension": 2050,
      "telling": 2051,
      "animation": 2052,
      "advent": 2053,
      "ony": 2054,
      "ceed": 2055,
      "concer": 2056,
      "prin": 2057,
      "port": 2058,
      "arely": 2059,
      "above": 2060,
      "bunch": 2061,
      "ses": 2062,
      "flash": 2063,
      "peter": 2064,
      "victim": 2065,
      "theme": 2066,
      "haven": 2067,
      "mise": 2068,
      "lon": 2069,
      "lots": 2070,
      "nearly": 2071,
      "doubt": 2072,
      "herself": 2073,
      "net": 2074,
      "flaw": 2075,
      "personal": 2076,
      "feels": 2077,
      "truth": 2078,
      "jim": 2079,
      "release": 2080,
      "iel": 2081,
      "note": 2082,
      "lat": 2083,
      "path": 2084,
      "clim": 2085,
      "slight": 2086,
      "mach": 2087,
      "storyline": 2088,
      "visual": 2089,
      "surprised": 2090,
      "fantastic": 2091,
      "western": 2092,
      "parents": 2093,
      "round": 2094,
      "public": 2095,
      "pet": 2096,
      "kills": 2097,
      "third": 2098,
      "sun": 2099,
      "capture": 2100,
      "begins": 2101,
      "dramatic": 2102,
      "count": 2103,
      "ution": 2104,
      "rown": 2105,
      "da": 2106,
      "fas": 2107,
      "potent": 2108,
      "drug": 2109,
      "minute": 2110,
      "inno": 2111,
      "agree": 2112,
      "gone": 2113,
      "nature": 2114,
      "50": 2115,
      "sudden": 2116,
      "shoo": 2117,
      "rus": 2118,
      "reve": 2119,
      "viewers": 2120,
      "large": 2121,
      "bs": 2122,
      "buy": 2123,
      "general": 2124,
      "issu": 2125,
      "forward": 2126,
      "30": 2127,
      "ica": 2128,
      "elements": 2129,
      "iment": 2130,
      "ches": 2131,
      "dance": 2132,
      "comments": 2133,
      "disney": 2134,
      "ered": 2135,
      "express": 2136,
      "soundtrack": 2137,
      "profess": 2138,
      "rit": 2139,
      "tried": 2140,
      "?<": 2141,
      "editing": 2142,
      "showing": 2143,
      "',": 2144,
      "contro": 2145,
      "difficult": 2146,
      "bul": 2147,
      "sugg": 2148,
      "catch": 2149,
      "thy": 2150,
      "viewing": 2151,
      "sorry": 2152,
      "tori": 2153,
      "brain": 2154,
      "baby": 2155,
      "ga": 2156,
      "decided": 2157,
      "mix": 2158,
      "secret": 2159,
      "filmed": 2160,
      "!)": 2161,
      "pts": 2162,
      "natural": 2163,
      "means": 2164,
      "pathetic": 2165,
      "contain": 2166,
      "grow": 2167,
      "ening": 2168,
      "exe": 2169,
      "paris": 2170,
      "kick": 2171,
      "crime": 2172,
      "vamp": 2173,
      "conne": 2174,
      "rate": 2175,
      "flu": 2176,
      "lame": 2177,
      "somehow": 2178,
      "writers": 2179,
      "meaning": 2180,
      "lier": 2181,
      "demon": 2182,
      "heav": 2183,
      "psycho": 2184,
      "bil": 2185,
      "ously": 2186,
      "repe": 2187,
      "leads": 2188,
      "lect": 2189,
      "zombie": 2190,
      "pure": 2191,
      "street": 2192,
      "weird": 2193,
      "business": 2194,
      "greatest": 2195,
      "resp": 2196,
      "ii": 2197,
      "ially": 2198,
      "appeal": 2199,
      "brought": 2200,
      "introdu": 2201,
      "fict": 2202,
      "hur": 2203,
      "hol": 2204,
      "acted": 2205,
      "deliver": 2206,
      "imagine": 2207,
      "ives": 2208,
      "week": 2209,
      "liter": 2210,
      "atmosphere": 2211,
      "shame": 2212,
      "whatever": 2213,
      "serv": 2214,
      "fit": 2215,
      "ray": 2216,
      "accent": 2217,
      "possibly": 2218,
      "ular": 2219,
      "hun": 2220,
      "particular": 2221,
      "america": 2222,
      "descri": 2223,
      "!!!": 2224,
      "fred": 2225,
      "accept": 2226,
      "ghost": 2227,
      "gest": 2228,
      "revol": 2229,
      "venge": 2230,
      "convincing": 2231,
      "average": 2232,
      "field": 2233,
      "stun": 2234,
      "prison": 2235,
      "indeed": 2236,
      "background": 2237,
      "eventually": 2238,
      "otic": 2239,
      "standing": 2240,
      "reviews": 2241,
      "wall": 2242,
      "angel": 2243,
      "ights": 2244,
      "spirit": 2245,
      "db": 2246,
      "ering": 2247,
      "surprise": 2248,
      "japanese": 2249,
      "okay": 2250,
      "teach": 2251,
      "poorly": 2252,
      "ior": 2253,
      "premise": 2254,
      "rific": 2255,
      "unity": 2256,
      "write": 2257,
      "chees": 2258,
      "strug": 2259,
      "jane": 2260,
      "medi": 2261,
      "ury": 2262,
      "luck": 2263,
      "berg": 2264,
      "ram": 2265,
      "doctor": 2266,
      "exper": 2267,
      "imdb": 2268,
      "ban": 2269,
      "forced": 2270,
      "leading": 2271,
      "pen": 2272,
      "focus": 2273,
      "reading": 2274,
      "effective": 2275,
      "aust": 2276,
      "fresh": 2277,
      "sleep": 2278,
      "scream": 2279,
      "mentioned": 2280,
      "logical": 2281,
      "became": 2282,
      "aid": 2283,
      "concl": 2284,
      "euro": 2285,
      "screenplay": 2286,
      "killing": 2287,
      "romance": 2288,
      "?\"": 2289,
      "jour": 2290,
      "cons": 2291,
      "needed": 2292,
      "further": 2293,
      "gay": 2294,
      "uck": 2295,
      "'.": 2296,
      "phil": 2297,
      "scott": 2298,
      "fran": 2299,
      "thank": 2300,
      "hair": 2301,
      "aging": 2302,
      "interested": 2303,
      "sed": 2304,
      "casting": 2305,
      "leaves": 2306,
      "han": 2307,
      "reco": 2308,
      "adv": 2309,
      "amoun": 2310,
      "ffer": 2311,
      "mass": 2312,
      "ub": 2313,
      "trad": 2314,
      "fasc": 2315,
      "len": 2316,
      "memorable": 2317,
      "vampire": 2318,
      "ging": 2319,
      "barr": 2320,
      "mac": 2321,
      "flat": 2322,
      "emotional": 2323,
      "meets": 2324,
      "sick": 2325,
      "credits": 2326,
      "society": 2327,
      "unless": 2328,
      "directors": 2329,
      "bored": 2330,
      "sal": 2331,
      "dress": 2332,
      "refer": 2333,
      "boys": 2334,
      "superb": 2335,
      "comb": 2336,
      "trash": 2337,
      "otherwise": 2338,
      "situation": 2339,
      "battle": 2340,
      "pan": 2341,
      "design": 2342,
      "meant": 2343,
      "meet": 2344,
      "mir": 2345,
      "popular": 2346,
      "dumb": 2347,
      "monster": 2348,
      "ran": 2349,
      "emotion": 2350,
      "unique": 2351,
      "ugh": 2352,
      "vid": 2353,
      "badly": 2354,
      "clever": 2355,
      "earlier": 2356,
      "plus": 2357,
      "total": 2358,
      "stal": 2359,
      "era": 2360,
      "worked": 2361,
      "fu": 2362,
      "crazy": 2363,
      "laughs": 2364,
      "sweet": 2365,
      "social": 2366,
      "older": 2367,
      "green": 2368,
      "discover": 2369,
      "execut": 2370,
      "beauty": 2371,
      "rede": 2372,
      "realize": 2373,
      "80": 2374,
      "cers": 2375,
      "gotten": 2376,
      "walk": 2377,
      "fantasy": 2378,
      "cul": 2379,
      "wol": 2380,
      "stere": 2381,
      "sens": 2382,
      "footage": 2383,
      "ager": 2384,
      "create": 2385,
      "rac": 2386,
      "neg": 2387,
      "stereo": 2388,
      "whom": 2389,
      "sounds": 2390,
      "directing": 2391,
      "development": 2392,
      "thus": 2393,
      "features": 2394,
      "ka": 2395,
      "keeps": 2396,
      "satis": 2397,
      "result": 2398,
      "adapt": 2399,
      "nud": 2400,
      "196": 2401,
      "hands": 2402,
      "perfectly": 2403,
      "quickly": 2404,
      "emp": 2405,
      "creepy": 2406,
      "recogn": 2407,
      "cro": 2408,
      "wil": 2409,
      "ising": 2410,
      "towards": 2411,
      "girlfriend": 2412,
      "broad": 2413,
      "aven": 2414,
      "cir": 2415,
      "ko": 2416,
      "suffer": 2417,
      "board": 2418,
      "cheesy": 2419,
      "test": 2420,
      "brings": 2421,
      "science": 2422,
      "ats": 2423,
      "attract": 2424,
      "plenty": 2425,
      "san": 2426,
      "christmas": 2427,
      "necessary": 2428,
      "rand": 2429,
      "stre": 2430,
      "lock": 2431,
      "aked": 2432,
      "occas": 2433,
      "incredibly": 2434,
      "sar": 2435,
      "acts": 2436,
      "techn": 2437,
      "cartoon": 2438,
      "awn": 2439,
      "ron": 2440,
      "suggest": 2441,
      "joke": 2442,
      "scient": 2443,
      "return": 2444,
      "allen": 2445,
      "anti": 2446,
      "famili": 2447,
      "/>\"": 2448,
      "ges": 2449,
      "lyn": 2450,
      "fighting": 2451,
      "admit": 2452,
      "?)": 2453,
      "dim": 2454,
      "imm": 2455,
      "desper": 2456,
      "powerful": 2457,
      "hill": 2458,
      "suit": 2459,
      "potential": 2460,
      "wers": 2461,
      "ague": 2462,
      "german": 2463,
      "fairly": 2464,
      "cute": 2465,
      "familiar": 2466,
      "cape": 2467,
      "copy": 2468,
      "political": 2469,
      "fat": 2470,
      "talented": 2471,
      "stri": 2472,
      "concept": 2473,
      "cry": 2474,
      "offic": 2475,
      "hardly": 2476,
      "masterpiece": 2477,
      "aste": 2478,
      "dies": 2479,
      "ders": 2480,
      "spl": 2481,
      "members": 2482,
      "ns": 2483,
      "py": 2484,
      "fear": 2485,
      "various": 2486,
      "ghts": 2487,
      "fails": 2488,
      "langu": 2489,
      "sem": 2490,
      "histor": 2491,
      "prim": 2492,
      "married": 2493,
      "drag": 2494,
      "color": 2495,
      "portrayed": 2496,
      "193": 2497,
      "island": 2498,
      "cold": 2499,
      "inside": 2500,
      "gram": 2501,
      "missing": 2502,
      "ero": 2503,
      "outside": 2504,
      "regard": 2505,
      "nudity": 2506,
      "ians": 2507,
      "filled": 2508,
      "vil": 2509,
      "shad": 2510,
      "crew": 2511,
      "reasons": 2512,
      "logy": 2513,
      "force": 2514,
      "trave": 2515,
      "ideas": 2516,
      "apped": 2517,
      "positive": 2518,
      "ki": 2519,
      "wild": 2520,
      "relig": 2521,
      "store": 2522,
      "company": 2523,
      "wel": 2524,
      "expecting": 2525,
      "deserves": 2526,
      "trail": 2527,
      "ices": 2528,
      "base": 2529,
      "table": 2530,
      "achie": 2531,
      "former": 2532,
      "ient": 2533,
      "missed": 2534,
      "embarr": 2535,
      "sky": 2536,
      "15": 2537,
      "biz": 2538,
      "wro": 2539,
      "ths": 2540,
      "remake": 2541,
      "iet": 2542,
      "cei": 2543,
      "manages": 2544,
      "194": 2545,
      "attempts": 2546,
      "spoilers": 2547,
      "ti": 2548,
      "za": 2549,
      "road": 2550,
      "invest": 2551,
      "ric": 2552,
      "doll": 2553,
      "embarrass": 2554,
      "wrote": 2555,
      "dete": 2556,
      "wind": 2557,
      "elling": 2558,
      "draw": 2559,
      "recently": 2560,
      "amount": 2561,
      "recor": 2562,
      "lid": 2563,
      "phys": 2564,
      "90": 2565,
      "insp": 2566,
      "gover": 2567,
      "sadly": 2568,
      "dad": 2569,
      "danger": 2570,
      "gor": 2571,
      "onic": 2572,
      "sess": 2573,
      "reveal": 2574,
      "ival": 2575,
      "rain": 2576,
      "\")": 2577,
      "gress": 2578,
      "accident": 2579,
      "ula": 2580,
      "west": 2581,
      "produced": 2582,
      "office": 2583,
      "psych": 2584,
      "sell": 2585,
      "thur": 2586,
      "asher": 2587,
      "reach": 2588,
      "filmmakers": 2589,
      "itted": 2590,
      "created": 2591,
      "following": 2592,
      "wart": 2593,
      "ded": 2594,
      "smo": 2595,
      "scare": 2596,
      "impressive": 2597,
      "incredible": 2598,
      "brief": 2599,
      "wasted": 2600,
      "common": 2601,
      "195": 2602,
      "annel": 2603,
      "accur": 2604,
      "wash": 2605,
      "cted": 2606,
      "hid": 2607,
      "project": 2608,
      "bility": 2609,
      "glo": 2610,
      "national": 2611,
      "pace": 2612,
      "ws": 2613,
      "escape": 2614,
      "brothers": 2615,
      "subtle": 2616,
      "europe": 2617,
      "mes": 2618,
      "intri": 2619,
      "passion": 2620,
      "credit": 2621,
      "revenge": 2622,
      "caught": 2623,
      "survi": 2624,
      "successful": 2625,
      "glad": 2626,
      "faith": 2627,
      "fash": 2628,
      "approach": 2629,
      "ius": 2630,
      "witch": 2631,
      "intelligent": 2632,
      "wed": 2633,
      "immedi": 2634,
      "comput": 2635,
      "party": 2636,
      "ordin": 2637,
      "rup": 2638,
      "channel": 2639,
      "complex": 2640,
      "waiting": 2641,
      "mere": 2642,
      "cross": 2643,
      "iff": 2644,
      "disturb": 2645,
      "(\"": 2646,
      "moves": 2647,
      "decides": 2648,
      "considering": 2649,
      "tes": 2650,
      "chase": 2651,
      "door": 2652,
      "dancing": 2653,
      "tension": 2654,
      "arre": 2655,
      "magic": 2656,
      "sand": 2657,
      "smith": 2658,
      "ships": 2659,
      "sees": 2660,
      "delight": 2661,
      "pointless": 2662,
      "def": 2663,
      "slightly": 2664,
      "ai": 2665,
      "esome": 2666,
      "slasher": 2667,
      "spent": 2668,
      "maker": 2669,
      "tough": 2670,
      "contri": 2671,
      "exciting": 2672,
      "compared": 2673,
      "suddenly": 2674,
      "neither": 2675,
      "extra": 2676,
      "funni": 2677,
      "worthy": 2678,
      "kar": 2679,
      "lor": 2680,
      "solid": 2681,
      "pack": 2682,
      "entirely": 2683,
      "six": 2684,
      "language": 2685,
      "actions": 2686,
      "choice": 2687,
      "italian": 2688,
      "dar": 2689,
      "gory": 2690,
      "compe": 2691,
      "mou": 2692,
      "century": 2693,
      "laughing": 2694,
      "trouble": 2695,
      "terror": 2696,
      "spot": 2697,
      "requ": 2698,
      "bling": 2699,
      "culture": 2700,
      "terri": 2701,
      "manner": 2702,
      "basic": 2703,
      "value": 2704,
      "animated": 2705,
      "bizarre": 2706,
      "tony": 2707,
      "itation": 2708,
      "bru": 2709,
      "violent": 2710,
      "heavy": 2711,
      "inform": 2712,
      "continu": 2713,
      "hang": 2714,
      "chur": 2715,
      "ultimately": 2716,
      "izing": 2717,
      "singing": 2718,
      "presented": 2719,
      "adventure": 2720,
      "tone": 2721,
      "zombies": 2722,
      "bon": 2723,
      "arri": 2724,
      "died": 2725,
      "studio": 2726,
      "ensive": 2727,
      "books": 2728,
      "pieces": 2729,
      "depend": 2730,
      "genu": 2731,
      "biggest": 2732,
      "runs": 2733,
      "andre": 2734,
      "adult": 2735,
      "spend": 2736,
      "shooting": 2737,
      "control": 2738,
      "squ": 2739,
      "depth": 2740,
      "bust": 2741,
      "amusing": 2742,
      "types": 2743,
      "critic": 2744,
      "hall": 2745,
      "lam": 2746,
      "ples": 2747,
      "fashion": 2748,
      "lab": 2749,
      "brut": 2750,
      "akes": 2751,
      "portrayal": 2752,
      "planet": 2753,
      "nom": 2754,
      "ults": 2755,
      "club": 2756,
      "appreciate": 2757,
      "genuine": 2758,
      "crow": 2759,
      "gle": 2760,
      "milit": 2761,
      "alien": 2762,
      "date": 2763,
      "gent": 2764,
      "stan": 2765,
      "hey": 2766,
      "pract": 2767,
      "criminal": 2768,
      "nic": 2769,
      "taste": 2770,
      "lets": 2771,
      "finish": 2772,
      "answer": 2773,
      "bomb": 2774,
      "uc": 2775,
      "grade": 2776,
      "younger": 2777,
      "changed": 2778,
      "iss": 2779,
      "chan": 2780,
      "proper": 2781,
      "awesome": 2782,
      "south": 2783,
      "born": 2784,
      "fascin": 2785,
      "opport": 2786,
      "enn": 2787,
      "appearance": 2788,
      "aside": 2789,
      "stone": 2790,
      "trip": 2791,
      "follows": 2792,
      "adam": 2793,
      "legend": 2794,
      "alex": 2795,
      "dem": 2796,
      "depress": 2797,
      "favour": 2798,
      "college": 2799,
      "impossible": 2800,
      "craf": 2801,
      "bond": 2802,
      "noir": 2803,
      "haun": 2804,
      "mistry": 2805,
      "ises": 2806,
      "rog": 2807,
      "fool": 2808,
      "carry": 2809,
      "ateur": 2810,
      "remark": 2811,
      "aster": 2812,
      "depict": 2813,
      "contr": 2814,
      "chemistry": 2815,
      "producers": 2816,
      "weren": 2817,
      "recommended": 2818,
      "ener": 2819,
      "thanks": 2820,
      "conclusion": 2821,
      "bage": 2822,
      "dir": 2823,
      "ened": 2824,
      "showed": 2825,
      "ald": 2826,
      "amateur": 2827,
      "ella": 2828,
      "starring": 2829,
      "obsess": 2830,
      "exception": 2831,
      "redeem": 2832,
      "sion": 2833,
      "rema": 2834,
      "shar": 2835,
      "considered": 2836,
      "situations": 2837,
      "million": 2838,
      "govern": 2839,
      "iced": 2840,
      "normal": 2841,
      "cam": 2842,
      "iers": 2843,
      "100": 2844,
      "disturbing": 2845,
      "ites": 2846,
      "complain": 2847,
      "steve": 2848,
      "involving": 2849,
      "barely": 2850,
      "somewhere": 2851,
      "author": 2852,
      "boss": 2853,
      "minor": 2854,
      "failed": 2855,
      "surprisingly": 2856,
      "developed": 2857,
      "sters": 2858,
      "ican": 2859,
      "decide": 2860,
      "leaving": 2861,
      "loud": 2862,
      "wolf": 2863,
      "assu": 2864,
      "bother": 2865,
      "pictures": 2866,
      "purpose": 2867,
      "grad": 2868,
      "added": 2869,
      "questions": 2870,
      "fiction": 2871,
      "essent": 2872,
      "longer": 2873,
      "fox": 2874,
      "bles": 2875,
      "likes": 2876,
      "computer": 2877,
      "gas": 2878,
      "program": 2879,
      "audiences": 2880,
      "blow": 2881,
      "enter": 2882,
      "fake": 2883,
      "consist": 2884,
      "dick": 2885,
      "nie": 2886,
      "rect": 2887,
      "neigh": 2888,
      "yed": 2889,
      "mood": 2890,
      "turning": 2891,
      "pil": 2892,
      "arthur": 2893,
      "prove": 2894,
      "charming": 2895,
      "counter": 2896,
      "images": 2897,
      "shoot": 2898,
      "appeared": 2899,
      "drive": 2900,
      "inspired": 2901,
      "gust": 2902,
      "bear": 2903,
      "grant": 2904,
      "values": 2905,
      "harry": 2906,
      "aus": 2907,
      "fell": 2908,
      "award": 2909,
      "stewart": 2910,
      "generally": 2911,
      "literally": 2912,
      "stunning": 2913,
      "lay": 2914,
      "leng": 2915,
      "load": 2916,
      "aper": 2917,
      "yeah": 2918,
      "curi": 2919,
      "london": 2920,
      "journey": 2921,
      "jef": 2922,
      "kes": 2923,
      "motion": 2924,
      "costum": 2925,
      "tun": 2926,
      "tro": 2927,
      "iny": 2928,
      "alive": 2929,
      "grace": 2930,
      "11": 2931,
      "prop": 2932,
      "edge": 2933,
      "moon": 2934,
      "standard": 2935,
      "mysterious": 2936,
      "pop": 2937,
      "plane": 2938,
      "garbage": 2939,
      "likable": 2940,
      "immediately": 2941,
      "military": 2942,
      "jump": 2943,
      "kno": 2944,
      "rick": 2945,
      "insul": 2946,
      "smart": 2947,
      "walking": 2948,
      "humour": 2949,
      "detective": 2950,
      "anth": 2951,
      "belief": 2952,
      "70": 2953,
      "bought": 2954,
      "justice": 2955,
      "respons": 2956,
      "random": 2957,
      "mare": 2958,
      "thin": 2959,
      "pects": 2960,
      "core": 2961,
      "avail": 2962,
      "christian": 2963,
      "sher": 2964,
      "ining": 2965,
      "mental": 2966,
      "impression": 2967,
      "cell": 2968,
      "nast": 2969,
      "aspect": 2970,
      "arily": 2971,
      "knowing": 2972,
      "honestly": 2973,
      "innocent": 2974,
      "army": 2975,
      "seg": 2976,
      "notice": 2977,
      "feat": 2978,
      "genius": 2979,
      "***": 2980,
      "pair": 2981,
      "utterly": 2982,
      "adaptation": 2983,
      "shadow": 2984,
      "investig": 2985,
      "rare": 2986,
      "nobody": 2987,
      "indust": 2988,
      "marri": 2989,
      "ization": 2990,
      "jes": 2991,
      "sitting": 2992,
      "ison": 2993,
      "serial": 2994,
      "festival": 2995,
      "fal": 2996,
      "sof": 2997,
      "ilt": 2998,
      "roc": 2999,
      "cock": 3000,
      "drawn": 3001,
      "succeed": 3002,
      "\".<": 3003,
      "jones": 3004,
      "lord": 3005,
      "tend": 3006,
      "melo": 3007,
      "moral": 3008,
      "ceived": 3009,
      "sexy": 3010,
      "soul": 3011,
      "climax": 3012,
      "nu": 3013,
      "init": 3014,
      "threat": 3015,
      "personally": 3016,
      "mission": 3017,
      "naked": 3018,
      "absur": 3019,
      "wow": 3020,
      "40": 3021,
      "nowhere": 3022,
      "intent": 3023,
      "steal": 3024,
      "woods": 3025,
      "witness": 3026,
      "wid": 3027,
      "blue": 3028,
      "intrigu": 3029,
      "ds": 3030,
      "itor": 3031,
      "ride": 3032,
      "orts": 3033,
      "dreams": 3034,
      "satisf": 3035,
      "oli": 3036,
      "sey": 3037,
      "occur": 3038,
      "ordinary": 3039,
      "spec": 3040,
      "minis": 3041,
      "comedies": 3042,
      "silent": 3043,
      "charlie": 3044,
      "bled": 3045,
      "bottom": 3046,
      "remains": 3047,
      "thinks": 3048,
      "wis": 3049,
      "torture": 3050,
      "producer": 3051,
      "twists": 3052,
      "beha": 3053,
      "trust": 3054,
      "beautifully": 3055,
      "gag": 3056,
      "terrific": 3057,
      "unbelievable": 3058,
      "charm": 3059,
      "touching": 3060,
      "aire": 3061,
      "moun": 3062,
      "thom": 3063,
      "moved": 3064,
      "batman": 3065,
      "issues": 3066,
      "bod": 3067,
      "names": 3068,
      "terms": 3069,
      "places": 3070,
      "equally": 3071,
      "russ": 3072,
      "bir": 3073,
      "kelly": 3074,
      "confl": 3075,
      "block": 3076,
      "syste": 3077,
      "topher": 3078,
      "enced": 3079,
      "suspect": 3080,
      "prot": 3081,
      "phy": 3082,
      "position": 3083,
      "devil": 3084,
      "mistake": 3085,
      "anda": 3086,
      "managed": 3087,
      "jean": 3088,
      "fellow": 3089,
      "professional": 3090,
      "church": 3091,
      "18": 3092,
      "mm": 3093,
      "mild": 3094,
      "chick": 3095,
      "nightmare": 3096,
      "gree": 3097,
      "bell": 3098,
      "drunk": 3099,
      "narrative": 3100,
      "government": 3101,
      "dor": 3102,
      "ito": 3103,
      "nel": 3104,
      "push": 3105,
      "thes": 3106,
      "exp": 3107,
      "lovely": 3108,
      "laughable": 3109,
      "ano": 3110,
      "esh": 3111,
      "themes": 3112,
      "soldiers": 3113,
      "likely": 3114,
      "cele": 3115,
      "ified": 3116,
      "bob": 3117,
      "queen": 3118,
      "disappointing": 3119,
      "absurd": 3120,
      "verse": 3121,
      "commun": 3122,
      "brid": 3123,
      "termin": 3124,
      "outstanding": 3125,
      "excuse": 3126,
      "appropri": 3127,
      "marriage": 3128,
      "contem": 3129,
      "painful": 3130,
      "spoiler": 3131,
      "attractive": 3132,
      "costumes": 3133,
      "nick": 3134,
      "ched": 3135,
      "trick": 3136,
      "affair": 3137,
      "aware": 3138,
      "disco": 3139,
      "correct": 3140,
      "surely": 3141,
      "flashback": 3142,
      "chin": 3143,
      "cher": 3144,
      "loy": 3145,
      "held": 3146,
      "central": 3147,
      "izes": 3148,
      "laughter": 3149,
      "000": 3150,
      "christopher": 3151,
      "constantly": 3152,
      "mult": 3153,
      "watchable": 3154,
      "gry": 3155,
      "offer": 3156,
      "views": 3157,
      "cinematic": 3158,
      "ires": 3159,
      "bour": 3160,
      "flow": 3161,
      "thrown": 3162,
      "medio": 3163,
      "individ": 3164,
      "changes": 3165,
      "hat": 3166,
      "loves": 3167,
      "everybody": 3168,
      "breath": 3169,
      "slowly": 3170,
      "hotel": 3171,
      "destroy": 3172,
      "fle": 3173,
      "influ": 3174,
      "idence": 3175,
      "presence": 3176,
      "contains": 3177,
      "available": 3178,
      "charles": 3179,
      "buck": 3180,
      "animals": 3181,
      "indian": 3182,
      "photography": 3183,
      "details": 3184,
      "besides": 3185,
      "historical": 3186,
      "eli": 3187,
      "page": 3188,
      "wide": 3189,
      "escap": 3190,
      "dig": 3191,
      "gri": 3192,
      "lish": 3193,
      "isa": 3194,
      "ify": 3195,
      "gain": 3196,
      "independ": 3197,
      "remain": 3198,
      "scenery": 3199,
      "hoping": 3200,
      "henry": 3201,
      "13": 3202,
      "bing": 3203,
      "inspir": 3204,
      "billy": 3205,
      "onto": 3206,
      "boo": 3207,
      "oughly": 3208,
      "disappointment": 3209,
      "speaking": 3210,
      "intended": 3211,
      "crack": 3212,
      "expectations": 3213,
      "ledge": 3214,
      "numbers": 3215,
      "ini": 3216,
      "park": 3217,
      "commer": 3218,
      "building": 3219,
      "sight": 3220,
      "subst": 3221,
      "double": 3222,
      "theless": 3223,
      "qual": 3224,
      "stands": 3225,
      "clean": 3226,
      "univers": 3227,
      "summer": 3228,
      "ahead": 3229,
      "inner": 3230,
      "loose": 3231,
      "ively": 3232,
      "critics": 3233,
      "graphic": 3234,
      "zero": 3235,
      "inger": 3236,
      "lover": 3237,
      "discus": 3238,
      "boyfriend": 3239,
      "addition": 3240,
      "imagin": 3241,
      "alan": 3242,
      "aspects": 3243,
      "suppose": 3244,
      "bits": 3245,
      "seven": 3246,
      "model": 3247,
      "via": 3248,
      "opera": 3249,
      "fascinating": 3250,
      "arts": 3251,
      "suff": 3252,
      "comfort": 3253,
      "dub": 3254,
      "phone": 3255,
      "placed": 3256,
      "dated": 3257,
      "eat": 3258,
      "pun": 3259,
      "ades": 3260,
      "heaven": 3261,
      "holes": 3262,
      "compl": 3263,
      "inder": 3264,
      "intense": 3265,
      "willing": 3266,
      "feelings": 3267,
      "aa": 3268,
      "image": 3269,
      "dow": 3270,
      "span": 3271,
      "forever": 3272,
      "lighting": 3273,
      "12": 3274,
      "ston": 3275,
      "filming": 3276,
      "hosp": 3277,
      "surround": 3278,
      "fright": 3279,
      "mainly": 3280,
      "norm": 3281,
      "bruce": 3282,
      "opportunity": 3283,
      "element": 3284,
      "compelling": 3285,
      "student": 3286,
      "wy": 3287,
      "icide": 3288,
      "inated": 3289,
      "lived": 3290,
      "drink": 3291,
      "sident": 3292,
      "hurt": 3293,
      "individual": 3294,
      "eth": 3295,
      "resem": 3296,
      "shak": 3297,
      "emotions": 3298,
      "neighbor": 3299,
      "gorge": 3300,
      "traged": 3301,
      "proves": 3302,
      "content": 3303,
      "twice": 3304,
      "celebr": 3305,
      "inc": 3306,
      "trag": 3307,
      "safe": 3308,
      "protagon": 3309,
      "race": 3310,
      "ured": 3311,
      "magn": 3312,
      "gro": 3313,
      "pi": 3314,
      "intention": 3315,
      "happening": 3316,
      "impact": 3317,
      "falling": 3318,
      "birth": 3319,
      "tired": 3320,
      "anders": 3321,
      "idi": 3322,
      "jects": 3323,
      "virt": 3324,
      "cel": 3325,
      "jan": 3326,
      "kr": 3327,
      "argu": 3328,
      "vert": 3329,
      "canad": 3330,
      "mont": 3331,
      "puts": 3332,
      "mut": 3333,
      "brand": 3334,
      "priv": 3335,
      "collection": 3336,
      "jerry": 3337,
      "hide": 3338,
      "mex": 3339,
      "zen": 3340,
      "arm": 3341,
      "bland": 3342,
      "giant": 3343,
      "winning": 3344,
      "confused": 3345,
      "aine": 3346,
      "ante": 3347,
      "hasn": 3348,
      "rape": 3349,
      "victims": 3350,
      "trailer": 3351,
      "adults": 3352,
      "amed": 3353,
      "disgust": 3354,
      "news": 3355,
      "difference": 3356,
      "titles": 3357,
      "include": 3358,
      "games": 3359,
      "grat": 3360,
      "paid": 3361,
      "helps": 3362,
      "pull": 3363,
      "behavi": 3364,
      "commercial": 3365,
      "card": 3366,
      "eight": 3367,
      "steven": 3368,
      "ura": 3369,
      "gem": 3370,
      "artist": 3371,
      "followed": 3372,
      "damn": 3373,
      "system": 3374,
      "pin": 3375,
      "anne": 3376,
      "ado": 3377,
      "porn": 3378,
      "creative": 3379,
      "plots": 3380,
      "martin": 3381,
      "slo": 3382,
      "putting": 3383,
      "share": 3384,
      "ku": 3385,
      "blind": 3386,
      "decis": 3387,
      "dread": 3388,
      "fli": 3389,
      "prote": 3390,
      "gene": 3391,
      "stock": 3392,
      "actresses": 3393,
      "gorgeous": 3394,
      "mine": 3395,
      "host": 3396,
      "div": 3397,
      "origin": 3398,
      "laughed": 3399,
      "confusing": 3400,
      "negative": 3401,
      "cum": 3402,
      "ests": 3403,
      "progress": 3404,
      "americans": 3405,
      "ugly": 3406,
      "murders": 3407,
      "pleasant": 3408,
      "latter": 3409,
      "mediocre": 3410,
      "bak": 3411,
      "bird": 3412,
      "rout": 3413,
      "itional": 3414,
      "asts": 3415,
      "proved": 3416,
      "hospital": 3417,
      "nan": 3418,
      "yer": 3419,
      "asks": 3420,
      "lying": 3421,
      "brad": 3422,
      "lacks": 3423,
      "supposedly": 3424,
      "gin": 3425,
      "chill": 3426,
      "bright": 3427,
      "rot": 3428,
      "crash": 3429,
      "impressed": 3430,
      "flaws": 3431,
      "funniest": 3432,
      "onna": 3433,
      "mote": 3434,
      "agent": 3435,
      "bol": 3436,
      "relationships": 3437,
      "rey": 3438,
      "lif": 3439,
      "igno": 3440,
      "emplo": 3441,
      "occasion": 3442,
      "multi": 3443,
      "tragedy": 3444,
      "gs": 3445,
      "wing": 3446,
      "tour": 3447,
      "frust": 3448,
      "faces": 3449,
      "students": 3450,
      "ya": 3451,
      "hook": 3452,
      "auto": 3453,
      "speed": 3454,
      "warm": 3455,
      "childhood": 3456,
      "nasty": 3457,
      "fish": 3458,
      "ties": 3459,
      "lia": 3460,
      "aps": 3461,
      "estab": 3462,
      "foc": 3463,
      "lessly": 3464,
      "wondering": 3465,
      "freak": 3466,
      "fied": 3467,
      "merely": 3468,
      "knock": 3469,
      "cup": 3470,
      "jul": 3471,
      "finding": 3472,
      "cab": 3473,
      "uous": 3474,
      "resc": 3475,
      "brian": 3476,
      "flicks": 3477,
      "flying": 3478,
      "bank": 3479,
      "eper": 3480,
      "lau": 3481,
      "ands": 3482,
      "rose": 3483,
      "folks": 3484,
      "imagination": 3485,
      "delivers": 3486,
      "explained": 3487,
      "struct": 3488,
      "fif": 3489,
      "irrit": 3490,
      "tran": 3491,
      "viet": 3492,
      "standards": 3493,
      "formula": 3494,
      "davis": 3495,
      "itude": 3496,
      "ander": 3497,
      "forgotten": 3498,
      "soldier": 3499,
      "mouth": 3500,
      "aton": 3501,
      "station": 3502,
      "becoming": 3503,
      "loving": 3504,
      "lights": 3505,
      "matic": 3506,
      "compan": 3507,
      "deserved": 3508,
      "tragic": 3509,
      "60": 3510,
      "sant": 3511,
      "remote": 3512,
      "ases": 3513,
      "conve": 3514,
      "stuck": 3515,
      "spectac": 3516,
      "bum": 3517,
      "powers": 3518,
      "offers": 3519,
      "robin": 3520,
      "afraid": 3521,
      "?!": 3522,
      "castle": 3523,
      "seconds": 3524,
      "skin": 3525,
      "thoroughly": 3526,
      "provides": 3527,
      "soft": 3528,
      "shakespe": 3529,
      "jon": 3530,
      "soci": 3531,
      "extr": 3532,
      "forgettable": 3533,
      "achieve": 3534,
      "nal": 3535,
      "rush": 3536,
      "los": 3537,
      "cow": 3538,
      "cook": 3539,
      "seemingly": 3540,
      "information": 3541,
      "ister": 3542,
      "states": 3543,
      "convent": 3544,
      "ctions": 3545,
      "warning": 3546,
      "williams": 3547,
      "reminded": 3548,
      "bath": 3549,
      "uts": 3550,
      "lose": 3551,
      "animal": 3552,
      "jackson": 3553,
      "breaking": 3554,
      "accurate": 3555,
      "ech": 3556,
      "mic": 3557,
      "thats": 3558,
      "industry": 3559,
      "uk": 3560,
      "stein": 3561,
      "ov": 3562,
      "buff": 3563,
      "length": 3564,
      "brok": 3565,
      "captain": 3566,
      "hidden": 3567,
      "hab": 3568,
      "acade": 3569,
      "artistic": 3570,
      "food": 3571,
      "listen": 3572,
      "location": 3573,
      ".,": 3574,
      "hack": 3575,
      "heal": 3576,
      "area": 3577,
      "agger": 3578,
      "rend": 3579,
      "horse": 3580,
      "shouldn": 3581,
      "relative": 3582,
      "creature": 3583,
      "heroes": 3584,
      "shocking": 3585,
      "presents": 3586,
      "remarkable": 3587,
      "andon": 3588,
      "youth": 3589,
      "pot": 3590,
      "wooden": 3591,
      "burn": 3592,
      "apartment": 3593,
      "scientist": 3594,
      "zo": 3595,
      "pra": 3596,
      "rented": 3597,
      "gling": 3598,
      "personality": 3599,
      "tie": 3600,
      "ww": 3601,
      "chuck": 3602,
      "beth": 3603,
      "accor": 3604,
      ".....": 3605,
      "weap": 3606,
      "shel": 3607,
      "adds": 3608,
      "dirty": 3609,
      "chinese": 3610,
      "angry": 3611,
      "prefer": 3612,
      "clothes": 3613,
      "punch": 3614,
      "itions": 3615,
      "uncle": 3616,
      "explan": 3617,
      "therefore": 3618,
      "heads": 3619,
      "radio": 3620,
      "wars": 3621,
      "filmmaker": 3622,
      "process": 3623,
      "finished": 3624,
      "pleasure": 3625,
      "shakespeare": 3626,
      "gal": 3627,
      "jum": 3628,
      "jason": 3629,
      "naz": 3630,
      "stren": 3631,
      "depart": 3632,
      "ups": 3633,
      "anymore": 3634,
      "glas": 3635,
      "judge": 3636,
      "austral": 3637,
      "cate": 3638,
      "hs": 3639,
      "aries": 3640,
      "mob": 3641,
      "lake": 3642,
      "picked": 3643,
      "jeff": 3644,
      "sli": 3645,
      "unexpected": 3646,
      "stephen": 3647,
      "sac": 3648,
      "tay": 3649,
      "ington": 3650,
      "sco": 3651,
      "aud": 3652,
      "danny": 3653,
      "martial": 3654,
      "describe": 3655,
      "possess": 3656,
      "techno": 3657,
      "favourite": 3658,
      "east": 3659,
      "fare": 3660,
      "rul": 3661,
      "max": 3662,
      "superior": 3663,
      "machine": 3664,
      "ency": 3665,
      "wee": 3666,
      "barbar": 3667,
      "intelligence": 3668,
      "struggle": 3669,
      "redeeming": 3670,
      "streng": 3671,
      "cgi": 3672,
      "hitch": 3673,
      "rage": 3674,
      "chap": 3675,
      "fill": 3676,
      "wearing": 3677,
      "bow": 3678,
      "fold": 3679,
      "syn": 3680,
      "allowed": 3681,
      "drugs": 3682,
      "mountain": 3683,
      "harris": 3684,
      "engaging": 3685,
      "teenage": 3686,
      "religious": 3687,
      "sour": 3688,
      "entious": 3689,
      "tears": 3690,
      "helped": 3691,
      "wonderfully": 3692,
      "desperate": 3693,
      "apo": 3694,
      "fits": 3695,
      "hic": 3696,
      "hund": 3697,
      "tex": 3698,
      "theatre": 3699,
      "repeated": 3700,
      "rupt": 3701,
      "bid": 3702,
      "soever": 3703,
      "disaster": 3704,
      "realized": 3705,
      "motiv": 3706,
      "humans": 3707,
      "transform": 3708,
      "teacher": 3709,
      "bound": 3710,
      "fights": 3711,
      "pse": 3712,
      "comparis": 3713,
      "convers": 3714,
      "includes": 3715,
      "deeply": 3716,
      "revolution": 3717,
      "pit": 3718,
      "zan": 3719,
      "thir": 3720,
      "research": 3721,
      "aly": 3722,
      "loss": 3723,
      "mann": 3724,
      "whatsoever": 3725,
      "realism": 3726,
      "drop": 3727,
      "issue": 3728,
      "commentary": 3729,
      "epic": 3730,
      "oppos": 3731,
      "pretentious": 3732,
      "began": 3733,
      "brook": 3734,
      "sympath": 3735,
      "bio": 3736,
      "cable": 3737,
      "vit": 3738,
      "brown": 3739,
      "limited": 3740,
      "technical": 3741,
      "vac": 3742,
      "leon": 3743,
      "suicide": 3744,
      "flesh": 3745,
      "gret": 3746,
      "skip": 3747,
      "energy": 3748,
      ".'": 3749,
      "cars": 3750,
      "stat": 3751,
      "ico": 3752,
      "soap": 3753,
      "civil": 3754,
      "physical": 3755,
      "independent": 3756,
      "taylor": 3757,
      "ape": 3758,
      "dying": 3759,
      "rarely": 3760,
      "els": 3761,
      "manage": 3762,
      "comedic": 3763,
      "cali": 3764,
      "douglas": 3765,
      "philo": 3766,
      "brutal": 3767,
      "river": 3768,
      "ppy": 3769,
      "johnny": 3770,
      "spective": 3771,
      "introduced": 3772,
      "stream": 3773,
      "hay": 3774,
      "slap": 3775,
      "conflict": 3776,
      "kate": 3777,
      "grave": 3778,
      "morgan": 3779,
      "appropriate": 3780,
      "eddie": 3781,
      "ption": 3782,
      "player": 3783,
      "strain": 3784,
      "oted": 3785,
      "superman": 3786,
      "sentiment": 3787,
      "victori": 3788,
      "responsible": 3789,
      "tight": 3790,
      "asure": 3791,
      "ilo": 3792,
      "unusual": 3793,
      "prec": 3794,
      "anybody": 3795,
      "coher": 3796,
      "aff": 3797,
      "holds": 3798,
      "magnific": 3799,
      "nation": 3800,
      "asp": 3801,
      "desire": 3802,
      "bbish": 3803,
      "apparent": 3804,
      "prince": 3805,
      "80s": 3806,
      "dun": 3807,
      "educ": 3808,
      "unknown": 3809,
      "keaton": 3810,
      "ira": 3811,
      "apes": 3812,
      "boat": 3813,
      "awk": 3814,
      "partner": 3815,
      "media": 3816,
      "twenty": 3817,
      "continue": 3818,
      "normally": 3819,
      "dum": 3820,
      "vive": 3821,
      "resol": 3822,
      "returns": 3823,
      "unnecessary": 3824,
      "joan": 3825,
      "kidn": 3826,
      "capt": 3827,
      "hitler": 3828,
      "cage": 3829,
      "nia": 3830,
      "oud": 3831,
      "knowledge": 3832,
      "perform": 3833,
      "memory": 3834,
      "surprising": 3835,
      "provide": 3836,
      "azz": 3837,
      "england": 3838,
      "wedding": 3839,
      "itous": 3840,
      "cere": 3841,
      "ja": 3842,
      "asing": 3843,
      "scared": 3844,
      "anywhere": 3845,
      "dry": 3846,
      "bloody": 3847,
      "cuts": 3848,
      "bian": 3849,
      "jr": 3850,
      "kin": 3851,
      "lind": 3852,
      "mate": 3853,
      "sir": 3854,
      "erous": 3855,
      "stret": 3856,
      "debut": 3857,
      "signific": 3858,
      "russian": 3859,
      "70s": 3860,
      "jay": 3861,
      "jose": 3862,
      "capable": 3863,
      "hundred": 3864,
      "asked": 3865,
      "complic": 3866,
      "president": 3867,
      "cops": 3868,
      "aves": 3869,
      "iously": 3870,
      "shop": 3871,
      "smile": 3872,
      "grapher": 3873,
      "leader": 3874,
      "constant": 3875,
      "experiment": 3876,
      "record": 3877,
      "pilot": 3878,
      "intriguing": 3879,
      "stor": 3880,
      "illa": 3881,
      "ifer": 3882,
      "shir": 3883,
      "price": 3884,
      "north": 3885,
      "paced": 3886,
      "broken": 3887,
      "fate": 3888,
      "gam": 3889,
      "rise": 3890,
      "thous": 3891,
      "atter": 3892,
      "stink": 3893,
      "somebody": 3894,
      "charis": 3895,
      "blon": 3896,
      "interpret": 3897,
      "creating": 3898,
      "nicely": 3899,
      "guns": 3900,
      "growing": 3901,
      "lynch": 3902,
      "candy": 3903,
      "itty": 3904,
      "ils": 3905,
      "wanting": 3906,
      "ladies": 3907,
      "hated": 3908,
      "sea": 3909,
      "separ": 3910,
      "vehic": 3911,
      "cris": 3912,
      "understanding": 3913,
      "mike": 3914,
      "pacing": 3915,
      "reminds": 3916,
      "academy": 3917,
      "tu": 3918,
      "humanity": 3919,
      "according": 3920,
      "gary": 3921,
      "hart": 3922,
      "paper": 3923,
      "reck": 3924,
      "acqu": 3925,
      "accompl": 3926,
      "noticed": 3927,
      "fet": 3928,
      "ipul": 3929,
      "dressed": 3930,
      "pup": 3931,
      "donald": 3932,
      "chore": 3933,
      "heroine": 3934,
      "clichés": 3935,
      "lucky": 3936,
      "buster": 3937,
      "lust": 3938,
      "repor": 3939,
      "quiet": 3940,
      "angle": 3941,
      "calls": 3942,
      "awkward": 3943,
      "lovers": 3944,
      "forces": 3945,
      "abs": 3946,
      "court": 3947,
      "cass": 3948,
      "peace": 3949,
      "freed": 3950,
      "passed": 3951,
      "tarzan": 3952,
      "freddy": 3953,
      "dangerous": 3954,
      "jesus": 3955,
      "explanation": 3956,
      ":<": 3957,
      "ene": 3958,
      "explic": 3959,
      "blame": 3960,
      "community": 3961,
      "higher": 3962,
      "chester": 3963,
      "mixed": 3964,
      "discovered": 3965,
      "originally": 3966,
      "represent": 3967,
      "kevin": 3968,
      "soph": 3969,
      "ousy": 3970,
      "visit": 3971,
      "visible": 3972,
      "instance": 3973,
      "bag": 3974,
      "cil": 3975,
      "dut": 3976,
      "vs": 3977,
      "frame": 3978,
      "pers": 3979,
      "nonsense": 3980,
      "intellect": 3981,
      "dimens": 3982,
      ")<": 3983,
      "fond": 3984,
      "nes": 3985,
      "itz": 3986,
      "iron": 3987,
      "spring": 3988,
      "players": 3989,
      "owner": 3990,
      "invent": 3991,
      "deserve": 3992,
      "vul": 3993,
      "belong": 3994,
      "---": 3995,
      "techni": 3996,
      "ote": 3997,
      "rat": 3998,
      "eric": 3999,
      "toward": 4000,
      "virgin": 4001,
      "iest": 4002,
      "lone": 4003,
      "lap": 4004,
      "wanna": 4005,
      "organ": 4006,
      "brave": 4007,
      "whil": 4008,
      "mature": 4009,
      "corpor": 4010,
      "singer": 4011,
      "starting": 4012,
      "european": 4013,
      "vhs": 4014,
      "chief": 4015,
      "lied": 4016,
      "friendship": 4017,
      "frequ": 4018,
      "rifying": 4019,
      "sympathetic": 4020,
      "nine": 4021,
      "edited": 4022,
      "union": 4023,
      "sole": 4024,
      "hadn": 4025,
      "served": 4026,
      "current": 4027,
      "floor": 4028,
      "princi": 4029,
      "spanish": 4030,
      "whilst": 4031,
      "14": 4032,
      "cash": 4033,
      "eating": 4034,
      "tt": 4035,
      "roo": 4036,
      "fection": 4037,
      "market": 4038,
      "courage": 4039,
      "keeping": 4040,
      "rubbish": 4041,
      "sucks": 4042,
      "ez": 4043,
      "mum": 4044,
      "nold": 4045,
      "officer": 4046,
      "contrast": 4047,
      "abr": 4048,
      "proceed": 4049,
      "simon": 4050,
      "saved": 4051,
      "memories": 4052,
      "naturally": 4053,
      "villains": 4054,
      "satisfying": 4055,
      "jess": 4056,
      "mu": 4057,
      "icate": 4058,
      "anton": 4059,
      "prepare": 4060,
      "affect": 4061,
      "finest": 4062,
      "satur": 4063,
      "service": 4064,
      "iac": 4065,
      "pless": 4066,
      "sport": 4067,
      "monsters": 4068,
      "lacking": 4069,
      "saving": 4070,
      "featuring": 4071,
      "kong": 4072,
      "lewis": 4073,
      "golden": 4074,
      "cruel": 4075,
      "empty": 4076,
      "santa": 4077,
      "ike": 4078,
      "text": 4079,
      "chair": 4080,
      "below": 4081,
      "abandon": 4082,
      "neck": 4083,
      "constru": 4084,
      "saur": 4085,
      "kinda": 4086,
      "regular": 4087,
      "treated": 4088,
      "concerned": 4089,
      "send": 4090,
      "forts": 4091,
      "werewolf": 4092,
      "marry": 4093,
      "horri": 4094,
      "insane": 4095,
      "glass": 4096,
      "pulled": 4097,
      "results": 4098,
      "jimmy": 4099,
      "washington": 4100,
      "delightful": 4101,
      "terribly": 4102,
      "weight": 4103,
      "related": 4104,
      "trek": 4105,
      "luke": 4106,
      ".\"<": 4107,
      "relev": 4108,
      "hopes": 4109,
      "witty": 4110,
      "domin": 4111,
      "hits": 4112,
      "rings": 4113,
      "dish": 4114,
      "months": 4115,
      "morning": 4116,
      "hearted": 4117,
      "included": 4118,
      "bbing": 4119,
      "grown": 4120,
      "jam": 4121,
      "elle": 4122,
      "assist": 4123,
      "marvel": 4124,
      "object": 4125,
      "target": 4126,
      "appealing": 4127,
      "screaming": 4128,
      "private": 4129,
      "jenn": 4130,
      "kim": 4131,
      "snow": 4132,
      "incident": 4133,
      "reaction": 4134,
      "weal": 4135,
      "whenever": 4136,
      "numerous": 4137,
      "driving": 4138,
      "streets": 4139,
      "urban": 4140,
      "behavior": 4141,
      "blonde": 4142,
      "skills": 4143,
      "von": 4144,
      "zel": 4145,
      "international": 4146,
      "versions": 4147,
      "corn": 4148,
      "context": 4149,
      "albert": 4150,
      "liber": 4151,
      "talents": 4152,
      "bigger": 4153,
      "unders": 4154,
      "dealing": 4155,
      "traditional": 4156,
      "gentle": 4157,
      ");": 4158,
      "rical": 4159,
      "reed": 4160,
      "atory": 4161,
      "/>-": 4162,
      "unfunny": 4163,
      "fault": 4164,
      "finale": 4165,
      "reviewers": 4166,
      "allows": 4167,
      "travel": 4168,
      "curious": 4169,
      "gross": 4170,
      "manipul": 4171,
      "perspective": 4172,
      "wear": 4173,
      "thered": 4174,
      "guard": 4175,
      "seless": 4176,
      "strict": 4177,
      "captured": 4178,
      "psychological": 4179,
      "circum": 4180,
      "opposite": 4181,
      "vy": 4182,
      "ators": 4183,
      "marks": 4184,
      "tape": 4185,
      "colum": 4186,
      "humorous": 4187,
      "ultimate": 4188,
      "gard": 4189,
      "shallow": 4190,
      "distr": 4191,
      "parody": 4192,
      "locations": 4193,
      "anthony": 4194,
      "kir": 4195,
      "sean": 4196,
      "loses": 4197,
      "ider": 4198,
      "plant": 4199,
      "plaus": 4200,
      "agers": 4201,
      "clar": 4202,
      "glor": 4203,
      "meeting": 4204,
      "gangster": 4205,
      "nich": 4206,
      "incre": 4207,
      "received": 4208,
      "associ": 4209,
      "deals": 4210,
      "minim": 4211,
      "daniel": 4212,
      "breaks": 4213,
      "ivity": 4214,
      "existence": 4215,
      "competent": 4216,
      "essentially": 4217,
      "gags": 4218,
      "choreo": 4219,
      "omen": 4220,
      "marie": 4221,
      "window": 4222,
      "satire": 4223,
      "continues": 4224,
      "connection": 4225,
      "magnificent": 4226,
      "dimensional": 4227,
      "ease": 4228,
      "gif": 4229,
      "erotic": 4230,
      "atra": 4231,
      "veter": 4232,
      "format": 4233,
      "rival": 4234,
      "howard": 4235,
      "serve": 4236,
      "achel": 4237,
      "viewed": 4238,
      "survive": 4239,
      "opens": 4240,
      "naive": 4241,
      "cameo": 4242,
      "remembered": 4243,
      "murdered": 4244,
      "covered": 4245,
      "mrs": 4246,
      "miles": 4247,
      "revealed": 4248,
      "labor": 4249,
      "comfortable": 4250,
      "chain": 4251,
      "deb": 4252,
      "consc": 4253,
      "insight": 4254,
      "visually": 4255,
      "corny": 4256,
      "advice": 4257,
      "jennifer": 4258,
      "lum": 4259,
      "lud": 4260,
      "buddy": 4261,
      "graphed": 4262,
      "segment": 4263,
      "junk": 4264,
      "inct": 4265,
      "ilies": 4266,
      "ime": 4267,
      "goof": 4268,
      "spell": 4269,
      "rolling": 4270,
      "united": 4271,
      "bog": 4272,
      "lesson": 4273,
      "center": 4274,
      "foreign": 4275,
      "creates": 4276,
      "identity": 4277,
      "village": 4278,
      "frankly": 4279,
      "african": 4280,
      "contribut": 4281,
      "occasionally": 4282,
      "cand": 4283,
      "cath": 4284,
      "wat": 4285,
      "tho": 4286,
      "ender": 4287,
      "welles": 4288,
      "ishing": 4289,
      "decade": 4290,
      "grew": 4291,
      "logic": 4292,
      "learned": 4293,
      "promise": 4294,
      "symbol": 4295,
      "bourne": 4296,
      "!).": 4297,
      "ario": 4298,
      "quir": 4299,
      "code": 4300,
      "efforts": 4301,
      "hallo": 4302,
      "ruth": 4303,
      "priest": 4304,
      "thomas": 4305,
      "circumst": 4306,
      "ather": 4307,
      "caine": 4308,
      "mitch": 4309,
      "wound": 4310,
      "winter": 4311,
      "regret": 4312,
      "iling": 4313,
      "preh": 4314,
      "print": 4315,
      "mini": 4316,
      "tribut": 4317,
      "vote": 4318,
      "bringing": 4319,
      "visuals": 4320,
      "spectacular": 4321,
      "unfold": 4322,
      "ulous": 4323,
      "killers": 4324,
      "gig": 4325,
      "raw": 4326,
      "sche": 4327,
      "tack": 4328,
      "sports": 4329,
      "miser": 4330,
      "drew": 4331,
      "desert": 4332,
      "sucked": 4333,
      "references": 4334,
      "genuinely": 4335,
      "craft": 4336,
      "comparison": 4337,
      "dent": 4338,
      "nav": 4339,
      "ration": 4340,
      "uitous": 4341,
      "anic": 4342,
      "altern": 4343,
      "seat": 4344,
      "alleng": 4345,
      "determin": 4346,
      "fairy": 4347,
      "study": 4348,
      "suffering": 4349,
      "freedom": 4350,
      "envir": 4351,
      "ching": 4352,
      "ays": 4353,
      "ambit": 4354,
      "overly": 4355,
      "rence": 4356,
      "emer": 4357,
      "sake": 4358,
      "meanwhile": 4359,
      "demonstr": 4360,
      "vampires": 4361,
      "haunting": 4362,
      "ctr": 4363,
      "pity": 4364,
      "anci": 4365,
      "moore": 4366,
      "trade": 4367,
      "built": 4368,
      "brilliantly": 4369,
      "admir": 4370,
      "sheriff": 4371,
      "bodies": 4372,
      "dino": 4373,
      "hunt": 4374,
      "rant": 4375,
      "unable": 4376,
      "sheer": 4377,
      "evening": 4378,
      "relief": 4379,
      "porary": 4380,
      "failure": 4381,
      "document": 4382,
      "louis": 4383,
      "hunter": 4384,
      "gordon": 4385,
      "coherent": 4386,
      "iled": 4387,
      "strip": 4388,
      "advert": 4389,
      "authen": 4390,
      "sett": 4391,
      "statement": 4392,
      "mirror": 4393,
      "stereotypes": 4394,
      "cis": 4395,
      "nau": 4396,
      "pitch": 4397,
      "zard": 4398,
      "awards": 4399,
      "sinatra": 4400,
      "promising": 4401,
      "irritating": 4402,
      "technology": 4403,
      "strength": 4404,
      "halloween": 4405,
      "environ": 4406,
      "16": 4407,
      "kung": 4408,
      "site": 4409,
      "cha": 4410,
      "thern": 4411,
      "spoof": 4412,
      "generation": 4413,
      "gratuitous": 4414,
      "decision": 4415,
      "joseph": 4416,
      "cant": 4417,
      "eer": 4418,
      "ping": 4419,
      "rous": 4420,
      "ende": 4421,
      "parker": 4422,
      "colour": 4423,
      "delivered": 4424,
      "emotionally": 4425,
      "broadway": 4426,
      "discovers": 4427,
      "barbara": 4428,
      "gonna": 4429,
      "ibility": 4430,
      "rie": 4431,
      "refresh": 4432,
      "atroc": 4433,
      "edy": 4434,
      "lem": 4435,
      "shine": 4436,
      "grim": 4437,
      "spin": 4438,
      "anime": 4439,
      "crappy": 4440,
      "sedu": 4441,
      "rough": 4442,
      "asian": 4443,
      "heck": 4444,
      "amor": 4445,
      "usive": 4446,
      "excite": 4447,
      "blown": 4448,
      "???": 4449,
      "executed": 4450,
      "sharp": 4451,
      "wick": 4452,
      "encounter": 4453,
      "stated": 4454,
      "challeng": 4455,
      "frid": 4456,
      "produce": 4457,
      "woody": 4458,
      "reviewer": 4459,
      "victor": 4460,
      "painfully": 4461,
      "transl": 4462,
      "switch": 4463,
      "claims": 4464,
      "flashbacks": 4465,
      "dreadful": 4466,
      "cinder": 4467,
      "native": 4468,
      "rix": 4469,
      "wayne": 4470,
      "families": 4471,
      "addict": 4472,
      "silver": 4473,
      "driven": 4474,
      "oz": 4475,
      "range": 4476,
      "sword": 4477,
      "feet": 4478,
      "offensive": 4479,
      "product": 4480,
      "corrupt": 4481,
      "patrick": 4482,
      "majority": 4483,
      "religion": 4484,
      "protagonist": 4485,
      "fab": 4486,
      "hip": 4487,
      "compreh": 4488,
      "guar": 4489,
      "speech": 4490,
      "command": 4491,
      "attitude": 4492,
      "entertained": 4493,
      "caused": 4494,
      "seasons": 4495,
      "costs": 4496,
      "recall": 4497,
      "nevertheless": 4498,
      "matt": 4499,
      "underrated": 4500,
      "relate": 4501,
      "handsome": 4502,
      "treatment": 4503,
      "vehicle": 4504,
      "==": 4505,
      "mend": 4506,
      "ador": 4507,
      "hearing": 4508,
      "endless": 4509,
      "ette": 4510,
      "classics": 4511,
      "walks": 4512,
      "experienced": 4513,
      "levels": 4514,
      "obsessed": 4515,
      "authentic": 4516,
      "25": 4517,
      "eve": 4518,
      "icts": 4519,
      "france": 4520,
      "gray": 4521,
      "aka": 4522,
      "serves": 4523,
      "ache": 4524,
      "exploitation": 4525,
      "practically": 4526,
      "amateurish": 4527,
      "17": 4528,
      "whel": 4529,
      "ication": 4530,
      "guil": 4531,
      "sons": 4532,
      "angles": 4533,
      "excited": 4534,
      "winner": 4535,
      "theatrical": 4536,
      "expression": 4537,
      "described": 4538,
      "victoria": 4539,
      "ancient": 4540,
      "cinderella": 4541,
      "meth": 4542,
      "inept": 4543,
      "scenario": 4544,
      "udes": 4545,
      "chosen": 4546,
      "evol": 4547,
      "jackie": 4548,
      "honor": 4549,
      "rescue": 4550,
      "rules": 4551,
      "understo": 4552,
      "ena": 4553,
      "asking": 4554,
      "rober": 4555,
      "monkey": 4556,
      "handed": 4557,
      "combination": 4558,
      "dubbed": 4559,
      "fame": 4560,
      "jar": 4561,
      "bra": 4562,
      "fornia": 4563,
      "robot": 4564,
      "ached": 4565,
      "lesbian": 4566,
      "stopped": 4567,
      "ignor": 4568,
      "francis": 4569,
      "understood": 4570,
      "hoff": 4571,
      "kat": 4572,
      "link": 4573,
      "nis": 4574,
      "skill": 4575,
      "wrest": 4576,
      "stum": 4577,
      "secur": 4578,
      "inevit": 4579,
      "rental": 4580,
      "highlight": 4581,
      "mask": 4582,
      "harsh": 4583,
      "........": 4584,
      "portrays": 4585,
      "theaters": 4586,
      "assume": 4587,
      "nancy": 4588,
      "hitchcock": 4589,
      "ey": 4590,
      "inte": 4591,
      "noon": 4592,
      "iding": 4593,
      "angers": 4594,
      "believes": 4595,
      "cares": 4596,
      "fix": 4597,
      "adventures": 4598,
      "karl": 4599,
      "extras": 4600,
      "lion": 4601,
      "supp": 4602,
      "choose": 4603,
      "germany": 4604,
      "ruined": 4605,
      "portraying": 4606,
      "refle": 4607,
      "largely": 4608,
      "faithful": 4609,
      "contrived": 4610,
      "focused": 4611,
      "fro": 4612,
      "sie": 4613,
      "va": 4614,
      "alco": 4615,
      "account": 4616,
      "unrealistic": 4617,
      "aret": 4618,
      "mates": 4619,
      "facts": 4620,
      "sisters": 4621,
      "football": 4622,
      "learns": 4623,
      "embarrassing": 4624,
      "crowd": 4625,
      "depressing": 4626,
      "canadian": 4627,
      "pher": 4628,
      "reput": 4629,
      "section": 4630,
      "scale": 4631,
      "maid": 4632,
      "proud": 4633,
      "assass": 4634,
      "welcome": 4635,
      "intentionally": 4636,
      "anderson": 4637,
      "alcohol": 4638,
      "cit": 4639,
      "forth": 4640,
      "clue": 4641,
      "matters": 4642,
      "ryan": 4643,
      "commit": 4644,
      "involves": 4645,
      "prior": 4646,
      "descript": 4647,
      "sequels": 4648,
      "necessarily": 4649,
      "fictional": 4650,
      "hes": 4651,
      "nar": 4652,
      "yl": 4653,
      "icated": 4654,
      "neat": 4655,
      "pregn": 4656,
      "costu": 4657,
      "clark": 4658,
      "thoughts": 4659,
      "truck": 4660,
      "evidence": 4661,
      "walter": 4662,
      "propag": 4663,
      "costume": 4664,
      "bac": 4665,
      "ec": 4666,
      "fic": 4667,
      "till": 4668,
      "trilo": 4669,
      "aint": 4670,
      "spects": 4671,
      "poses": 4672,
      "barry": 4673,
      "strongly": 4674,
      "teenager": 4675,
      "nominated": 4676,
      "oliver": 4677,
      "nut": 4678,
      "xious": 4679,
      "enthus": 4680,
      "beach": 4681,
      "lower": 4682,
      "partic": 4683,
      "tedious": 4684,
      "convinced": 4685,
      "ville": 4686,
      "disgusting": 4687,
      "routine": 4688,
      "excitement": 4689,
      "lousy": 4690,
      "wend": 4691,
      "isher": 4692,
      "losing": 4693,
      "scr": 4694,
      "talks": 4695,
      "surreal": 4696,
      "bitter": 4697,
      "dynam": 4698,
      "faced": 4699,
      "saturday": 4700,
      "enthusi": 4701,
      "factor": 4702,
      "kh": 4703,
      "som": 4704,
      "sno": 4705,
      "vague": 4706,
      "analy": 4707,
      "ada": 4708,
      "poster": 4709,
      "femin": 4710,
      "uss": 4711,
      "electr": 4712,
      "holding": 4713,
      "apping": 4714,
      "substance": 4715,
      "nichol": 4716,
      "gate": 4717,
      "rep": 4718,
      "revel": 4719,
      "ama": 4720,
      "shut": 4721,
      "cia": 4722,
      "capital": 4723,
      "voices": 4724,
      "cutting": 4725,
      "passing": 4726,
      "training": 4727,
      "captures": 4728,
      "hanging": 4729,
      "universal": 4730,
      "relevant": 4731,
      "circumstances": 4732,
      "bren": 4733,
      "plor": 4734,
      "distri": 4735,
      "teenagers": 4736,
      "baseball": 4737,
      "haunted": 4738,
      "imaginative": 4739,
      "gm": 4740,
      "hint": 4741,
      "tast": 4742,
      "haw": 4743,
      "dragon": 4744,
      "anged": 4745,
      "hyster": 4746,
      "existent": 4747,
      "essential": 4748,
      "trilogy": 4749,
      "tiny": 4750,
      "shall": 4751,
      "forest": 4752,
      "handled": 4753,
      "murphy": 4754,
      "directly": 4755,
      "involve": 4756,
      "swim": 4757,
      "false": 4758,
      "intellectual": 4759,
      "figh": 4760,
      "ium": 4761,
      "jung": 4762,
      "wins": 4763,
      "yard": 4764,
      "reminis": 4765,
      "asle": 4766,
      "/>*": 4767,
      "beast": 4768,
      "pets": 4769,
      "powell": 4770,
      "maint": 4771,
      "sides": 4772,
      "creatures": 4773,
      "hopefully": 4774,
      "virtually": 4775,
      "horribly": 4776,
      "citiz": 4777,
      "asleep": 4778,
      "bush": 4779,
      "kins": 4780,
      "phis": 4781,
      "pile": 4782,
      "sne": 4783,
      "destru": 4784,
      "continuity": 4785,
      "insult": 4786,
      "initial": 4787,
      "relatively": 4788,
      "reporter": 4789,
      ",'": 4790,
      "gie": 4791,
      "spre": 4792,
      "thro": 4793,
      "arrest": 4794,
      "irish": 4795,
      "rights": 4796,
      "doom": 4797,
      "function": 4798,
      "steals": 4799,
      "ashing": 4800,
      "ski": 4801,
      "sorts": 4802,
      "figured": 4803,
      "appreciated": 4804,
      "africa": 4805,
      "professor": 4806,
      "influence": 4807,
      "cowboy": 4808,
      "category": 4809,
      "ludic": 4810,
      "iles": 4811,
      "champ": 4812,
      "semi": 4813,
      "icious": 4814,
      "mented": 4815,
      "excess": 4816,
      "adding": 4817,
      "ugs": 4818,
      "sitcom": 4819,
      "lawyer": 4820,
      "politics": 4821,
      "unlikely": 4822,
      "controvers": 4823,
      "contemporary": 4824,
      "texas": 4825,
      "dinosaur": 4826,
      "method": 4827,
      "__": 4828,
      "fed": 4829,
      "ato": 4830,
      "alle": 4831,
      "stit": 4832,
      "decl": 4833,
      "friendly": 4834,
      "liners": 4835,
      "pursu": 4836,
      "shocked": 4837,
      "claimed": 4838,
      "depicted": 4839,
      "multiple": 4840,
      "maintain": 4841,
      "1st": 4842,
      "chi": 4843,
      "chant": 4844,
      "mock": 4845,
      "tural": 4846,
      "unfortunate": 4847,
      "hammer": 4848,
      "expert": 4849,
      "prime": 4850,
      "loyal": 4851,
      "rebel": 4852,
      "alice": 4853,
      "spy": 4854,
      "firm": 4855,
      "osex": 4856,
      "believed": 4857,
      "tons": 4858,
      "cases": 4859,
      "resist": 4860,
      "anagh": 4861,
      "russell": 4862,
      "columbo": 4863,
      "):": 4864,
      "bin": 4865,
      "sab": 4866,
      "inher": 4867,
      "cooper": 4868,
      "changing": 4869,
      "movement": 4870,
      "provided": 4871,
      "weekend": 4872,
      "designed": 4873,
      "qualities": 4874,
      "structure": 4875,
      "source": 4876,
      "conscious": 4877,
      "security": 4878,
      "jaw": 4879,
      "sink": 4880,
      "oul": 4881,
      "quar": 4882,
      "makeup": 4883,
      "----": 4884,
      "warri": 4885,
      "closer": 4886,
      "fortune": 4887,
      "painting": 4888,
      "touches": 4889,
      "australian": 4890,
      "enemy": 4891,
      "refreshing": 4892,
      "mort": 4893,
      "pier": 4894,
      "vig": 4895,
      "atl": 4896,
      "outrage": 4897,
      "trap": 4898,
      "conv": 4899,
      "display": 4900,
      "render": 4901,
      "landsc": 4902,
      "deaths": 4903,
      "ruin": 4904,
      "speaks": 4905,
      "cartoons": 4906,
      "wilder": 4907,
      "habit": 4908,
      "osexual": 4909,
      "dd": 4910,
      "fid": 4911,
      "mous": 4912,
      "report": 4913,
      "edward": 4914,
      "hole": 4915,
      "degree": 4916,
      "notch": 4917,
      "dos": 4918,
      "fee": 4919,
      "mail": 4920,
      "exagger": 4921,
      "plans": 4922,
      "preach": 4923,
      "colon": 4924,
      "supernatural": 4925,
      "paint": 4926,
      "surprises": 4927,
      "cliff": 4928,
      "critical": 4929,
      "dogs": 4930,
      "provok": 4931,
      "previously": 4932,
      "integr": 4933,
      "cous": 4934,
      "fing": 4935,
      "jail": 4936,
      "ert": 4937,
      "arms": 4938,
      "brick": 4939,
      "roger": 4940,
      "pool": 4941,
      "shan": 4942,
      "treasure": 4943,
      "roman": 4944,
      "accents": 4945,
      "demand": 4946,
      "weeks": 4947,
      "propaganda": 4948,
      "dust": 4949,
      "gand": 4950,
      "jen": 4951,
      "nur": 4952,
      "chose": 4953,
      "abuse": 4954,
      "whoever": 4955,
      "teens": 4956,
      "emma": 4957,
      "mainstream": 4958,
      "pacino": 4959,
      "princess": 4960,
      "franch": 4961,
      "convict": 4962,
      "din": 4963,
      "kore": 4964,
      "wreck": 4965,
      "intr": 4966,
      "thel": 4967,
      "isol": 4968,
      "rell": 4969,
      "headed": 4970,
      "deadly": 4971,
      "cyn": 4972,
      "latest": 4973,
      "emphas": 4974,
      "granted": 4975,
      "suffers": 4976,
      "idiot": 4977,
      "protect": 4978,
      "storm": 4979,
      "veteran": 4980,
      "invisible": 4981,
      "rece": 4982,
      "stair": 4983,
      "gosi": 4984,
      "grab": 4985,
      "ideal": 4986,
      "flor": 4987,
      "evident": 4988,
      "driver": 4989,
      "experiences": 4990,
      "benef": 4991,
      "mistakes": 4992,
      "execution": 4993,
      "wilson": 4994,
      "dollars": 4995,
      "accidentally": 4996,
      "eliza": 4997,
      "roberts": 4998,
      "aunt": 4999,
      "mgm": 5000,
      "rhy": 5001,
      "ued": 5002,
      "uninteresting": 5003,
      "robo": 5004,
      "dol": 5005,
      "feed": 5006,
      "bore": 5007,
      "pted": 5008,
      "crude": 5009,
      "realizes": 5010,
      "tales": 5011,
      "carol": 5012,
      "colors": 5013,
      "voc": 5014,
      "aliens": 5015,
      "twisted": 5016,
      "sensitive": 5017,
      "sympathy": 5018,
      "eu": 5019,
      "gles": 5020,
      "kur": 5021,
      "nn": 5022,
      "nude": 5023,
      "ole": 5024,
      "uted": 5025,
      "compar": 5026,
      "doo": 5027,
      "prostit": 5028,
      "blah": 5029,
      "porno": 5030,
      "struggling": 5031,
      "combined": 5032,
      "atrocious": 5033,
      "friday": 5034,
      "guilty": 5035,
      "particip": 5036,
      "bone": 5037,
      "pitt": 5038,
      "improve": 5039,
      "idio": 5040,
      "poe": 5041,
      "dozen": 5042,
      "matrix": 5043,
      "universe": 5044,
      "convince": 5045,
      "connect": 5046,
      "bull": 5047,
      "hong": 5048,
      "tan": 5049,
      "acle": 5050,
      "rod": 5051,
      "poign": 5052,
      "torn": 5053,
      "metal": 5054,
      "gritty": 5055,
      "surface": 5056,
      "pati": 5057,
      "uel": 5058,
      "committed": 5059,
      "walked": 5060,
      "lugosi": 5061,
      "connected": 5062,
      "recognize": 5063,
      "technically": 5064,
      "frightening": 5065,
      "establish": 5066,
      "plausible": 5067,
      "!),": 5068,
      "dal": 5069,
      "modest": 5070,
      "dean": 5071,
      "meat": 5072,
      "sulli": 5073,
      "magical": 5074,
      "confess": 5075,
      "figures": 5076,
      "sarah": 5077,
      "department": 5078,
      "\"),": 5079,
      "wwi": 5080,
      "sophis": 5081,
      "arded": 5082,
      "foster": 5083,
      "overwhel": 5084,
      "offered": 5085,
      "warned": 5086,
      "kinds": 5087,
      "spoken": 5088,
      "darkness": 5089,
      "factory": 5090,
      "explains": 5091,
      "occasional": 5092,
      "sullivan": 5093,
      "lane": 5094,
      "thumb": 5095,
      "theory": 5096,
      "stro": 5097,
      "gues": 5098,
      "crying": 5099,
      "crush": 5100,
      "performed": 5101,
      "featured": 5102,
      "variety": 5103,
      "suspenseful": 5104,
      "narration": 5105,
      "demons": 5106,
      "journal": 5107,
      "massive": 5108,
      "legendary": 5109,
      "vietnam": 5110,
      "reputation": 5111,
      "aur": 5112,
      "tap": 5113,
      "instru": 5114,
      "ara": 5115,
      "explor": 5116,
      "conce": 5117,
      "happiness": 5118,
      "subtitles": 5119,
      "johnson": 5120,
      "rub": 5121,
      "rule": 5122,
      "touched": 5123,
      "sunday": 5124,
      "nazi": 5125,
      "flight": 5126,
      "mst": 5127,
      "tag": 5128,
      "tong": 5129,
      "china": 5130,
      "het": 5131,
      "alling": 5132,
      "concent": 5133,
      "everywhere": 5134,
      "drum": 5135,
      "stolen": 5136,
      "hugh": 5137,
      "borrow": 5138,
      "titanic": 5139,
      "bbc": 5140,
      "steps": 5141,
      "network": 5142,
      "required": 5143,
      "lonely": 5144,
      "rachel": 5145,
      "bron": 5146,
      "nostal": 5147,
      "seek": 5148,
      "spite": 5149,
      "cring": 5150,
      "dude": 5151,
      "turkey": 5152,
      "border": 5153,
      "jobs": 5154,
      "scares": 5155,
      "melodrama": 5156,
      "remotely": 5157,
      "conversation": 5158,
      "california": 5159,
      "jungle": 5160,
      "sophistic": 5161,
      "cence": 5162,
      "hr": 5163,
      "hired": 5164,
      "mud": 5165,
      "pas": 5166,
      "tree": 5167,
      "alas": 5168,
      "chased": 5169,
      "challen": 5170,
      "betray": 5171,
      "notori": 5172,
      "susan": 5173,
      "trapped": 5174,
      "spends": 5175,
      "afternoon": 5176,
      "gia": 5177,
      "tax": 5178,
      "downright": 5179,
      "obsc": 5180,
      "ashed": 5181,
      "contest": 5182,
      "lands": 5183,
      "freeman": 5184,
      "julia": 5185,
      "philip": 5186,
      "complicated": 5187,
      "hoffman": 5188,
      "lisa": 5189,
      "toler": 5190,
      "chor": 5191,
      "acc": 5192,
      "kets": 5193,
      "holi": 5194,
      "bothered": 5195,
      "prevent": 5196,
      "lifetime": 5197,
      "warming": 5198,
      "minds": 5199,
      "worthwhile": 5200,
      "burns": 5201,
      "favorites": 5202,
      "listening": 5203,
      "effectively": 5204,
      "surviv": 5205,
      "blockbuster": 5206,
      "birds": 5207,
      "captiv": 5208,
      "abandoned": 5209,
      "iat": 5210,
      "branagh": 5211,
      "unconvincing": 5212,
      "goth": 5213,
      "peck": 5214,
      "otes": 5215,
      "believ": 5216,
      "folk": 5217,
      "imagery": 5218,
      "legal": 5219,
      "admitted": 5220,
      "advant": 5221,
      "cultural": 5222,
      "60s": 5223,
      "gren": 5224,
      "pig": 5225,
      "wave": 5226,
      "thed": 5227,
      "alright": 5228,
      "chy": 5229,
      "beck": 5230,
      "libr": 5231,
      "mechan": 5232,
      "indul": 5233,
      "cheese": 5234,
      "starred": 5235,
      "jeal": 5236,
      "minded": 5237,
      "address": 5238,
      "tremend": 5239,
      "aham": 5240,
      "stays": 5241,
      "tradition": 5242,
      "mexican": 5243,
      "mexico": 5244,
      "cod": 5245,
      "dare": 5246,
      "toy": 5247,
      "web": 5248,
      "worry": 5249,
      "upper": 5250,
      "bern": 5251,
      "phan": 5252,
      "buying": 5253,
      "pulls": 5254,
      "delivery": 5255,
      "larry": 5256,
      "stayed": 5257,
      "paying": 5258,
      "divor": 5259,
      "praise": 5260,
      "bach": 5261,
      "jun": 5262,
      "kni": 5263,
      "closing": 5264,
      "shaw": 5265,
      "productions": 5266,
      "amazed": 5267,
      "uniform": 5268,
      "reveals": 5269,
      "prepared": 5270,
      "bic": 5271,
      "nest": 5272,
      "ners": 5273,
      "zed": 5274,
      "ita": 5275,
      "access": 5276,
      "ida": 5277,
      "iran": 5278,
      "sus": 5279,
      "outs": 5280,
      "tear": 5281,
      "artists": 5282,
      "1950": 5283,
      "caring": 5284,
      "grey": 5285,
      "focuses": 5286,
      "thankfully": 5287,
      "status": 5288,
      "significant": 5289,
      "ji": 5290,
      "zy": 5291,
      "attr": 5292,
      "rious": 5293,
      "teeth": 5294,
      "indie": 5295,
      "adequ": 5296,
      "interview": 5297,
      "stomach": 5298,
      "hardy": 5299,
      "curt": 5300,
      "examples": 5301,
      "clips": 5302,
      "appearing": 5303,
      "device": 5304,
      "campy": 5305,
      "studios": 5306,
      "ghosts": 5307,
      "ludicrous": 5308,
      "jac": 5309,
      "ads": 5310,
      "doc": 5311,
      "trav": 5312,
      "grues": 5313,
      "intens": 5314,
      "maria": 5315,
      "sidney": 5316,
      "india": 5317,
      "miller": 5318,
      ".)<": 5319,
      "clichéd": 5320,
      "heavily": 5321,
      "environment": 5322,
      "bare": 5323,
      "bang": 5324,
      "las": 5325,
      "inn": 5326,
      "astr": 5327,
      "ilities": 5328,
      "olic": 5329,
      "canni": 5330,
      "mono": 5331,
      "warner": 5332,
      "illian": 5333,
      "murderer": 5334,
      "profound": 5335,
      "install": 5336,
      "sleeping": 5337,
      "desperately": 5338,
      "regarding": 5339,
      "dur": 5340,
      "hil": 5341,
      "atives": 5342,
      "braz": 5343,
      "beloved": 5344,
      "forgot": 5345,
      "illust": 5346,
      "cole": 5347,
      "aken": 5348,
      "blat": 5349,
      "obno": 5350,
      "dramat": 5351,
      "midnight": 5352,
      "facial": 5353,
      "summary": 5354,
      "daughters": 5355,
      "smoo": 5356,
      "initially": 5357,
      "destroyed": 5358,
      "ignore": 5359,
      "slapstick": 5360,
      "fabulous": 5361,
      "pregnant": 5362,
      "knight": 5363,
      "ensu": 5364,
      "term": 5365,
      "deeper": 5366,
      "ques": 5367,
      "renting": 5368,
      "decades": 5369,
      "condition": 5370,
      "magaz": 5371,
      "severe": 5372,
      "occup": 5373,
      "successfully": 5374,
      "anticip": 5375,
      "fourth": 5376,
      "racist": 5377,
      "stereotypical": 5378,
      "elizabeth": 5379,
      "24": 5380,
      "cure": 5381,
      "dud": 5382,
      "pes": 5383,
      "pic": 5384,
      "phe": 5385,
      "league": 5386,
      "aming": 5387,
      "pled": 5388,
      "eston": 5389,
      "craw": 5390,
      "marg": 5391,
      "spector": 5392,
      "answers": 5393,
      "coln": 5394,
      "corner": 5395,
      "calling": 5396,
      "lincoln": 5397,
      "dennis": 5398,
      "walker": 5399,
      "helping": 5400,
      "hopeless": 5401,
      "struck": 5402,
      "metap": 5403,
      "gruesome": 5404,
      "\").": 5405,
      "pian": 5406,
      "rab": 5407,
      "task": 5408,
      "neth": 5409,
      "umph": 5410,
      "claire": 5411,
      "disbelief": 5412,
      "workers": 5413,
      "pointed": 5414,
      "underground": 5415,
      "screening": 5416,
      "originality": 5417,
      "sounded": 5418,
      "learning": 5419,
      "musicals": 5420,
      "1980": 5421,
      "settings": 5422,
      "splend": 5423,
      "drinking": 5424,
      "cabin": 5425,
      "guarante": 5426,
      "description": 5427,
      "reminiscent": 5428,
      "lished": 5429,
      "nit": 5430,
      "nights": 5431,
      "rein": 5432,
      "shif": 5433,
      "grin": 5434,
      "greater": 5435,
      "mond": 5436,
      "ashamed": 5437,
      "burst": 5438,
      "amazingly": 5439,
      "picks": 5440,
      "graphics": 5441,
      "throwing": 5442,
      "sandler": 5443,
      "criminals": 5444,
      "mildly": 5445,
      "bridge": 5446,
      "julie": 5447,
      "quirky": 5448,
      "sions": 5449,
      "intim": 5450,
      "shr": 5451,
      "storytelling": 5452,
      "leslie": 5453,
      "philli": 5454,
      "tition": 5455,
      "halfway": 5456,
      "southern": 5457,
      "rolled": 5458,
      "locked": 5459,
      "extraordinary": 5460,
      "funnier": 5461,
      "criticism": 5462,
      "inspiring": 5463,
      "cket": 5464,
      "kiss": 5465,
      "mble": 5466,
      "mouse": 5467,
      "slaughter": 5468,
      "redu": 5469,
      "amber": 5470,
      "outing": 5471,
      "scars": 5472,
      "usa": 5473,
      "charge": 5474,
      "join": 5475,
      "finan": 5476,
      "carp": 5477,
      "vivid": 5478,
      "handle": 5479,
      "stylish": 5480,
      "michelle": 5481,
      "alike": 5482,
      "swed": 5483,
      "depiction": 5484,
      "sentimental": 5485,
      "determined": 5486,
      "notorious": 5487,
      "error": 5488,
      "reward": 5489,
      "ari": 5490,
      "hears": 5491,
      "det": 5492,
      "dece": 5493,
      "comical": 5494,
      "therine": 5495,
      "extent": 5496,
      "proof": 5497,
      "craz": 5498,
      "choices": 5499,
      "triumph": 5500,
      "vincent": 5501,
      "trait": 5502,
      "deliber": 5503,
      "balance": 5504,
      "massac": 5505,
      "rogers": 5506,
      "convey": 5507,
      "jessica": 5508,
      "99": 5509,
      "cave": 5510,
      "hh": 5511,
      "hous": 5512,
      "robb": 5513,
      "elli": 5514,
      "mentally": 5515,
      "tooth": 5516,
      "raised": 5517,
      "clock": 5518,
      "deni": 5519,
      "harm": 5520,
      "2000": 5521,
      "striking": 5522,
      "chilling": 5523,
      "vacation": 5524,
      "bay": 5525,
      "ee": 5526,
      "gil": 5527,
      "nin": 5528,
      "stunt": 5529,
      "/>(": 5530,
      "timing": 5531,
      "bollywood": 5532,
      "sham": 5533,
      "bette": 5534,
      "matth": 5535,
      "carl": 5536,
      "bug": 5537,
      "basis": 5538,
      "elev": 5539,
      "burton": 5540,
      "laid": 5541,
      "shape": 5542,
      "homosexual": 5543,
      "purely": 5544,
      "dollar": 5545,
      "inspiration": 5546,
      "weapons": 5547,
      "brooks": 5548,
      "cé": 5549,
      "ego": 5550,
      "lazy": 5551,
      "alter": 5552,
      "seag": 5553,
      "noble": 5554,
      "ami": 5555,
      "notable": 5556,
      "titled": 5557,
      "burt": 5558,
      "novels": 5559,
      "throws": 5560,
      "introduction": 5561,
      "stanley": 5562,
      "properly": 5563,
      "crafted": 5564,
      "consistent": 5565,
      "breathtaking": 5566,
      "weapon": 5567,
      "hing": 5568,
      "mul": 5569,
      "pg": 5570,
      "vast": 5571,
      "inspector": 5572,
      "adays": 5573,
      "aby": 5574,
      "wears": 5575,
      "nowadays": 5576,
      "aking": 5577,
      "blair": 5578,
      "assign": 5579,
      "everyday": 5580,
      "simpl": 5581,
      "happily": 5582,
      "subsequ": 5583,
      "fallen": 5584,
      "strangely": 5585,
      "bilities": 5586,
      "succeeds": 5587,
      "fay": 5588,
      "stoo": 5589,
      "andering": 5590,
      "stab": 5591,
      "iring": 5592,
      "conspir": 5593,
      "elled": 5594,
      "pred": 5595,
      "cheer": 5596,
      "phen": 5597,
      "causes": 5598,
      "laura": 5599,
      "riding": 5600,
      "ratings": 5601,
      "atmospher": 5602,
      "reference": 5603,
      "psychiat": 5604,
      "provoking": 5605,
      "smooth": 5606,
      "ware": 5607,
      "yle": 5608,
      "orient": 5609,
      "acing": 5610,
      "ader": 5611,
      "tracy": 5612,
      "lesser": 5613,
      "raj": 5614,
      "posing": 5615,
      "spook": 5616,
      "2006": 5617,
      "1970": 5618,
      "reflect": 5619,
      "!!!!!!!!": 5620,
      "daily": 5621,
      "carrying": 5622,
      "intentional": 5623,
      "interpretation": 5624,
      "challenge": 5625,
      "obnoxious": 5626,
      "hence": 5627,
      "sna": 5628,
      "chasing": 5629,
      "mol": 5630,
      "advan": 5631,
      "ironic": 5632,
      "rial": 5633,
      "premi": 5634,
      "spiel": 5635,
      "bettie": 5636,
      "...\"": 5637,
      "raise": 5638,
      "letter": 5639,
      "relax": 5640,
      "jewish": 5641,
      "sinister": 5642,
      "busy": 5643,
      "sleazy": 5644,
      "nonetheless": 5645,
      "amongst": 5646,
      "westerns": 5647,
      "wyck": 5648,
      "established": 5649,
      "gad": 5650,
      "pound": 5651,
      "sive": 5652,
      "uff": 5653,
      "thunder": 5654,
      "inations": 5655,
      "isto": 5656,
      "ading": 5657,
      "ament": 5658,
      "aston": 5659,
      "iger": 5660,
      "shower": 5661,
      "creation": 5662,
      "carries": 5663,
      "carried": 5664,
      "legs": 5665,
      "confusion": 5666,
      "attempting": 5667,
      "retarded": 5668,
      "holmes": 5669,
      "embarrassed": 5670,
      "escapes": 5671,
      "replaced": 5672,
      "eness": 5673,
      "aces": 5674,
      "absor": 5675,
      "therland": 5676,
      "paralle": 5677,
      "enjoying": 5678,
      "needless": 5679,
      "pressed": 5680,
      "dramas": 5681,
      "opened": 5682,
      "broke": 5683,
      "2001": 5684,
      "madness": 5685,
      "risk": 5686,
      "*****": 5687,
      "arrives": 5688,
      "obsession": 5689,
      "navy": 5690,
      "champion": 5691,
      "advantage": 5692,
      "bun": 5693,
      "fisher": 5694,
      "isms": 5695,
      "doors": 5696,
      "mansion": 5697,
      "exists": 5698,
      "seeking": 5699,
      "shell": 5700,
      "screenwriter": 5701,
      "topic": 5702,
      "fortunately": 5703,
      "transfer": 5704,
      "angels": 5705,
      "official": 5706,
      "stanwyck": 5707,
      "intentions": 5708,
      "widow": 5709,
      "frequently": 5710,
      "goofy": 5711,
      "carpenter": 5712,
      "bast": 5713,
      "jake": 5714,
      "tick": 5715,
      "thre": 5716,
      "sutherland": 5717,
      "scrip": 5718,
      "manager": 5719,
      "horrific": 5720,
      "phant": 5721,
      "lucy": 5722,
      "presentation": 5723,
      "listed": 5724,
      "oddly": 5725,
      "attacked": 5726,
      "brando": 5727,
      "jumps": 5728,
      "marvelous": 5729,
      "catholic": 5730,
      "\"?": 5731,
      "rum": 5732,
      "myst": 5733,
      "cox": 5734,
      "disgu": 5735,
      "stops": 5736,
      "comedian": 5737,
      "addy": 5738,
      "valent": 5739,
      "passes": 5740,
      "packed": 5741,
      "mst3": 5742,
      "bart": 5743,
      "eg": 5744,
      "hick": 5745,
      "hud": 5746,
      "hatt": 5747,
      "thief": 5748,
      "abor": 5749,
      "geor": 5750,
      "pover": 5751,
      "trau": 5752,
      "ural": 5753,
      "diam": 5754,
      "disagree": 5755,
      "interviews": 5756,
      "stupidity": 5757,
      "balls": 5758,
      "patient": 5759,
      "ralph": 5760,
      "equal": 5761,
      "attacks": 5762,
      "dawn": 5763,
      "immense": 5764,
      "neighborhood": 5765,
      "wwii": 5766,
      "intensity": 5767,
      "brazil": 5768,
      "nd": 5769,
      "rever": 5770,
      "albe": 5771,
      "lean": 5772,
      "shines": 5773,
      "bugs": 5774,
      "farm": 5775,
      "void": 5776,
      "cube": 5777,
      "thrilling": 5778,
      "wheel": 5779,
      "destro": 5780,
      "personalities": 5781,
      "spiritual": 5782,
      "conventional": 5783,
      "distribut": 5784,
      "kurt": 5785,
      "tongue": 5786,
      "matthau": 5787,
      "albeit": 5788,
      "dinner": 5789,
      "sag": 5790,
      "chil": 5791,
      "beating": 5792,
      "abilities": 5793,
      "elder": 5794,
      "suspects": 5795,
      "rian": 5796,
      "math": 5797,
      "exer": 5798,
      "perfection": 5799,
      "warn": 5800,
      "drives": 5801,
      "flawed": 5802,
      "torial": 5803,
      "kicks": 5804,
      "1950s": 5805,
      "baker": 5806,
      "poignant": 5807,
      "seagal": 5808,
      "dere": 5809,
      "kis": 5810,
      "vous": 5811,
      "bride": 5812,
      "ieu": 5813,
      "terrifying": 5814,
      "rochester": 5815,
      "elvir": 5816,
      "butt": 5817,
      "actic": 5818,
      "confront": 5819,
      "dign": 5820,
      "dubbing": 5821,
      "internet": 5822,
      "stranger": 5823,
      "horrend": 5824,
      "letting": 5825,
      "mindless": 5826,
      "credible": 5827,
      "wishes": 5828,
      "announ": 5829,
      "oooo": 5830,
      "innov": 5831,
      "expressions": 5832,
      "struggles": 5833,
      "andrew": 5834,
      "widmark": 5835,
      "franchise": 5836,
      "cynical": 5837,
      "phenomen": 5838,
      "etern": 5839,
      "rates": 5840,
      "tat": 5841,
      "isand": 5842,
      "isra": 5843,
      "arrog": 5844,
      "aded": 5845,
      "elvis": 5846,
      "dear": 5847,
      "scoo": 5848,
      "plastic": 5849,
      "contract": 5850,
      "upset": 5851,
      "covers": 5852,
      "pride": 5853,
      "overcome": 5854,
      "dislike": 5855,
      "greatly": 5856,
      "month": 5857,
      "attend": 5858,
      "medical": 5859,
      "logist": 5860,
      "credibility": 5861,
      "refuses": 5862,
      "adapted": 5863,
      "innocence": 5864,
      "revolves": 5865,
      "redem": 5866,
      "hills": 5867,
      "minimal": 5868,
      "spielberg": 5869,
      "scripts": 5870,
      "boun": 5871,
      "fbi": 5872,
      "mund": 5873,
      "pion": 5874,
      "pap": 5875,
      "sque": 5876,
      "sket": 5877,
      "tense": 5878,
      "wan": 5879,
      "yu": 5880,
      "infer": 5881,
      "infamous": 5882,
      "stress": 5883,
      "forbid": 5884,
      "geon": 5885,
      "trite": 5886,
      "disc": 5887,
      "lessons": 5888,
      "eva": 5889,
      "vier": 5890,
      "contact": 5891,
      "titive": 5892,
      "exceptional": 5893,
      "brow": 5894,
      "italy": 5895,
      "patri": 5896,
      "britain": 5897,
      "gather": 5898,
      "racism": 5899,
      "bearable": 5900,
      "tune": 5901,
      "thousands": 5902,
      "wealthy": 5903,
      "dentist": 5904,
      "scratch": 5905,
      "controversial": 5906,
      "diamond": 5907,
      "elvira": 5908,
      ":)": 5909,
      "xon": 5910,
      "nose": 5911,
      "adol": 5912,
      "shy": 5913,
      "shark": 5914,
      "indu": 5915,
      "joint": 5916,
      "awa": 5917,
      "blance": 5918,
      "gio": 5919,
      "trial": 5920,
      "helen": 5921,
      "basket": 5922,
      "puzz": 5923,
      "streisand": 5924,
      "fatal": 5925,
      "nelson": 5926,
      "crisis": 5927,
      "tribute": 5928,
      "aired": 5929,
      "cise": 5930,
      "fx": 5931,
      "jol": 5932,
      "jet": 5933,
      "ology": 5934,
      "zone": 5935,
      "reunion": 5936,
      "enor": 5937,
      "asm": 5938,
      "chases": 5939,
      "iments": 5940,
      "amy": 5941,
      "poet": 5942,
      "shorts": 5943,
      "erson": 5944,
      "blond": 5945,
      "caric": 5946,
      "carter": 5947,
      "vised": 5948,
      "countries": 5949,
      "guessing": 5950,
      "thrillers": 5951,
      "physically": 5952,
      "andrews": 5953,
      "expensive": 5954,
      "hundreds": 5955,
      "derek": 5956,
      "fitting": 5957,
      "nas": 5958,
      "tire": 5959,
      "tied": 5960,
      "yo": 5961,
      "alleg": 5962,
      "sevent": 5963,
      "wasting": 5964,
      "iffer": 5965,
      "conven": 5966,
      "aught": 5967,
      "shoes": 5968,
      "enjoyment": 5969,
      "sincere": 5970,
      "sexuality": 5971,
      "panic": 5972,
      "suffered": 5973,
      "gripping": 5974,
      "chaplin": 5975,
      "performers": 5976,
      "technique": 5977,
      "eager": 5978,
      "mit": 5979,
      "rist": 5980,
      "zor": 5981,
      "err": 5982,
      "nov": 5983,
      "lovable": 5984,
      "uncomfortable": 5985,
      "hoo": 5986,
      "irony": 5987,
      "boll": 5988,
      "spark": 5989,
      "ourselves": 5990,
      "wells": 5991,
      "whereas": 5992,
      "horses": 5993,
      "parano": 5994,
      "ensemble": 5995,
      "glimp": 5996,
      "sings": 5997,
      "dancer": 5998,
      "satan": 5999,
      "millions": 6000,
      "appy": 6001,
      "hunting": 6002,
      "separate": 6003,
      "mst3k": 6004,
      "glimpse": 6005,
      "oscars": 6006,
      "anity": 6007,
      "arnold": 6008,
      "imit": 6009,
      "tors": 6010,
      "quote": 6011,
      "pray": 6012,
      "flav": 6013,
      "turing": 6014,
      "counters": 6015,
      "solve": 6016,
      "osity": 6017,
      "flynn": 6018,
      "assistant": 6019,
      "wicked": 6020,
      "karloff": 6021,
      "sophisticated": 6022,
      "holiday": 6023,
      "atmospheric": 6024,
      "thick": 6025,
      "allo": 6026,
      "itar": 6027,
      "elabor": 6028,
      "presum": 6029,
      "quis": 6030,
      "192": 6031,
      "oblig": 6032,
      "glory": 6033,
      "curse": 6034,
      "weakness": 6035,
      "homeless": 6036,
      "searching": 6037,
      "troubled": 6038,
      "meaningful": 6039,
      "acceptable": 6040,
      "satisfied": 6041,
      "basement": 6042,
      "cousin": 6043,
      "knife": 6044,
      "massacre": 6045,
      "''": 6046,
      "mup": 6047,
      "tall": 6048,
      "eral": 6049,
      "restrain": 6050,
      "icing": 6051,
      "entry": 6052,
      "tery": 6053,
      "ambig": 6054,
      "neil": 6055,
      "plague": 6056,
      "shed": 6057,
      "istan": 6058,
      "coach": 6059,
      "aki": 6060,
      "clum": 6061,
      "reads": 6062,
      "ception": 6063,
      "cameos": 6064,
      "burning": 6065,
      "appearances": 6066,
      "savage": 6067,
      "battles": 6068,
      "jerk": 6069,
      "respond": 6070,
      "iii": 6071,
      "split": 6072,
      "specific": 6073,
      "protagonists": 6074,
      "fighter": 6075,
      "caricature": 6076,
      "45": 6077,
      "jere": 6078,
      "lur": 6079,
      "oil": 6080,
      "toile": 6081,
      "editor": 6082,
      "stiff": 6083,
      "seed": 6084,
      "vey": 6085,
      "lian": 6086,
      "ifi": 6087,
      "frag": 6088,
      "condu": 6089,
      "shay": 6090,
      "miscast": 6091,
      "relent": 6092,
      "portrait": 6093,
      "hamlet": 6094,
      "sticks": 6095,
      "hipp": 6096,
      "shoots": 6097,
      "suggests": 6098,
      "medium": 6099,
      "passionate": 6100,
      "idiotic": 6101,
      "stretch": 6102,
      "thousand": 6103,
      "kirk": 6104,
      "?),": 6105,
      "daw": 6106,
      "pam": 6107,
      "unforgettable": 6108,
      "ela": 6109,
      "hoped": 6110,
      "noted": 6111,
      "maf": 6112,
      "maniac": 6113,
      "guilt": 6114,
      "afford": 6115,
      "worlds": 6116,
      "superfic": 6117,
      "develops": 6118,
      "concert": 6119,
      "accepted": 6120,
      "consists": 6121,
      "colorful": 6122,
      "scarecrow": 6123,
      "hiding": 6124,
      "insulting": 6125,
      "tender": 6126,
      "stealing": 6127,
      "health": 6128,
      "thirty": 6129,
      "explicit": 6130,
      "splendid": 6131,
      "econ": 6132,
      "gic": 6133,
      "guts": 6134,
      "inexplic": 6135,
      "rely": 6136,
      "stall": 6137,
      "bears": 6138,
      "demo": 6139,
      "scor": 6140,
      "boom": 6141,
      "believing": 6142,
      "spots": 6143,
      "lucas": 6144,
      "rooms": 6145,
      "larger": 6146,
      "annoyed": 6147,
      "bald": 6148,
      "saves": 6149,
      "repeat": 6150,
      "doro": 6151,
      "attraction": 6152,
      "redemption": 6153,
      "lil": 6154,
      "pon": 6155,
      "alt": 6156,
      "ultra": 6157,
      "worker": 6158,
      "walken": 6159,
      "restaur": 6160,
      "catherine": 6161,
      "ification": 6162,
      "drops": 6163,
      "dialogs": 6164,
      "hibit": 6165,
      "portion": 6166,
      "glover": 6167,
      "belongs": 6168,
      "destruction": 6169,
      "curtis": 6170,
      "econom": 6171,
      "dorothy": 6172,
      "ien": 6173,
      "anced": 6174,
      "ona": 6175,
      "todd": 6176,
      "chamber": 6177,
      "icting": 6178,
      "dod": 6179,
      "appl": 6180,
      "essence": 6181,
      "tea": 6182,
      "afore": 6183,
      "opath": 6184,
      "phr": 6185,
      "screw": 6186,
      "counts": 6187,
      "denzel": 6188,
      "curren": 6189,
      "burg": 6190,
      "wake": 6191,
      "cusack": 6192,
      "typically": 6193,
      "virus": 6194,
      "rita": 6195,
      "hanks": 6196,
      "boredom": 6197,
      "loyd": 6198,
      "charismatic": 6199,
      "tube": 6200,
      "accomplish": 6201,
      "eerie": 6202,
      "hudson": 6203,
      "2nd": 6204,
      "kane": 6205,
      "encounters": 6206,
      "loid": 6207,
      "loser": 6208,
      "newsp": 6209,
      "cheek": 6210,
      "insist": 6211,
      "eleg": 6212,
      "vices": 6213,
      "crimes": 6214,
      "closely": 6215,
      "2005": 6216,
      "concerns": 6217,
      "scientists": 6218,
      "achieved": 6219,
      "rushed": 6220,
      "endearing": 6221,
      "believably": 6222,
      "library": 6223,
      "metaphor": 6224,
      "\"...": 6225,
      "awe": 6226,
      "fired": 6227,
      "lloyd": 6228,
      "sends": 6229,
      "enters": 6230,
      "goal": 6231,
      "ause": 6232,
      "voy": 6233,
      "launch": 6234,
      "elsewhere": 6235,
      "males": 6236,
      "rocks": 6237,
      "swing": 6238,
      "checking": 6239,
      "stunts": 6240,
      "complaint": 6241,
      "segments": 6242,
      "canada": 6243,
      "hooked": 6244,
      "citizen": 6245,
      "cannibal": 6246,
      "kaz": 6247,
      "oke": 6248,
      "useless": 6249,
      "yan": 6250,
      "yel": 6251,
      "incoherent": 6252,
      "lol": 6253,
      "ripped": 6254,
      "huh": 6255,
      "drown": 6256,
      "raped": 6257,
      "secretary": 6258,
      "franco": 6259,
      "dragged": 6260,
      "fashioned": 6261,
      "bobby": 6262,
      "eastwood": 6263,
      "charisma": 6264,
      "jeremy": 6265,
      "?).": 6266,
      "finger": 6267,
      "hitting": 6268,
      "kum": 6269,
      "macy": 6270,
      "ramp": 6271,
      "tool": 6272,
      "toss": 6273,
      "noise": 6274,
      "idy": 6275,
      "bold": 6276,
      "stood": 6277,
      "muslim": 6278,
      "attle": 6279,
      "cake": 6280,
      "godfather": 6281,
      "dealt": 6282,
      "photographer": 6283,
      "tricks": 6284,
      "birthday": 6285,
      "abrup": 6286,
      "scooby": 6287,
      "ggy": 6288,
      "heston": 6289,
      "kath": 6290,
      "sally": 6291,
      "tte": 6292,
      "reactions": 6293,
      "heat": 6294,
      "wives": 6295,
      "rol": 6296,
      "clint": 6297,
      "selling": 6298,
      "blank": 6299,
      "assa": 6300,
      "direc": 6301,
      "centric": 6302,
      "videos": 6303,
      "attempted": 6304,
      "resour": 6305,
      "hearts": 6306,
      "countless": 6307,
      "ritter": 6308,
      "smoking": 6309,
      "briefly": 6310,
      "adams": 6311,
      "pseu": 6312,
      "techniques": 6313,
      "atlant": 6314,
      "thumbs": 6315,
      "gothic": 6316,
      "magazine": 6317,
      "gut": 6318,
      "gall": 6319,
      "hust": 6320,
      "hire": 6321,
      "pir": 6322,
      "thew": 6323,
      "redi": 6324,
      "replace": 6325,
      "enstein": 6326,
      "leo": 6327,
      "unintentionally": 6328,
      "conceived": 6329,
      "guest": 6330,
      "pran": 6331,
      "sexually": 6332,
      "clown": 6333,
      "hype": 6334,
      "morality": 6335,
      "1990": 6336,
      "strikes": 6337,
      "horrendous": 6338,
      "bible": 6339,
      "eyed": 6340,
      "kay": 6341,
      "mile": 6342,
      "pper": 6343,
      "uct": 6344,
      "reel": 6345,
      "ingen": 6346,
      "ingredi": 6347,
      "forgive": 6348,
      "poison": 6349,
      "user": 6350,
      "pleased": 6351,
      "aving": 6352,
      "selfish": 6353,
      "string": 6354,
      "ashes": 6355,
      "attached": 6356,
      "carefully": 6357,
      "greg": 6358,
      "frey": 6359,
      "custo": 6360,
      "engine": 6361,
      "importance": 6362,
      "grandmother": 6363,
      "limit": 6364,
      "grows": 6365,
      "strike": 6366,
      "surrounding": 6367,
      "surrounded": 6368,
      "philoso": 6369,
      "admittedly": 6370,
      "amo": 6371,
      "cies": 6372,
      "fian": 6373,
      "gus": 6374,
      "kitch": 6375,
      "lily": 6376,
      "patch": 6377,
      "rome": 6378,
      "rex": 6379,
      "represents": 6380,
      "asingly": 6381,
      "chances": 6382,
      "haha": 6383,
      "comics": 6384,
      "uristic": 6385,
      "ellar": 6386,
      "spending": 6387,
      "spike": 6388,
      "carn": 6389,
      "gotta": 6390,
      "styles": 6391,
      "cycl": 6392,
      "stronger": 6393,
      "homage": 6394,
      "robber": 6395,
      "walls": 6396,
      "luckily": 6397,
      "kubrick": 6398,
      "revelation": 6399,
      "sneak": 6400,
      "stairs": 6401,
      "adequate": 6402,
      "poverty": 6403,
      "cen": 6404,
      "kor": 6405,
      "poke": 6406,
      "confron": 6407,
      "shining": 6408,
      "astaire": 6409,
      "spar": 6410,
      "aft": 6411,
      "bleak": 6412,
      "....<": 6413,
      "duke": 6414,
      "killings": 6415,
      "carrey": 6416,
      "mons": 6417,
      "mighty": 6418,
      "miike": 6419,
      "easier": 6420,
      "engage": 6421,
      "picking": 6422,
      "hamil": 6423,
      "dropped": 6424,
      "1970s": 6425,
      "executive": 6426,
      "requires": 6427,
      "university": 6428,
      "reynold": 6429,
      "philosoph": 6430,
      "shirt": 6431,
      "childish": 6432,
      "fiancé": 6433,
      "bby": 6434,
      "iation": 6435,
      "jazz": 6436,
      "mars": 6437,
      "hem": 6438,
      "root": 6439,
      "holy": 6440,
      "ifies": 6441,
      "usions": 6442,
      "active": 6443,
      "conserv": 6444,
      "projects": 6445,
      "performing": 6446,
      "scripted": 6447,
      "reasonable": 6448,
      "messages": 6449,
      "2002": 6450,
      "boxing": 6451,
      "juven": 6452,
      "shadows": 6453,
      "threatening": 6454,
      "occurs": 6455,
      "cardboard": 6456,
      "resolution": 6457,
      "vulner": 6458,
      "increasingly": 6459,
      "associated": 6460,
      "gift": 6461,
      "inevitable": 6462,
      "korean": 6463,
      "exercise": 6464,
      "mafia": 6465,
      "reynolds": 6466,
      "sadd": 6467,
      "size": 6468,
      "tad": 6469,
      "tel": 6470,
      "inser": 6471,
      "onse": 6472,
      "motor": 6473,
      "excl": 6474,
      "bye": 6475,
      "temper": 6476,
      "fancy": 6477,
      "misses": 6478,
      "silence": 6479,
      "identify": 6480,
      "spirited": 6481,
      "mistaken": 6482,
      "matched": 6483,
      "gabr": 6484,
      "ginger": 6485,
      "drags": 6486,
      "continued": 6487,
      "jesse": 6488,
      "bakshi": 6489,
      "fifteen": 6490,
      "toilet": 6491,
      "dawson": 6492,
      "ae": 6493,
      "bis": 6494,
      "cun": 6495,
      "gul": 6496,
      "hank": 6497,
      "kol": 6498,
      "mall": 6499,
      "wack": 6500,
      "reject": 6501,
      "beer": 6502,
      "terior": 6503,
      "butch": 6504,
      "suits": 6505,
      "bless": 6506,
      "drac": 6507,
      "bub": 6508,
      "handful": 6509,
      "yester": 6510,
      "twin": 6511,
      "davies": 6512,
      "brilliance": 6513,
      "thrills": 6514,
      "allowing": 6515,
      "1980s": 6516,
      "advance": 6517,
      "salv": 6518,
      "splatter": 6519,
      "depression": 6520,
      "gradu": 6521,
      "investigation": 6522,
      "nuclear": 6523,
      "bucks": 6524,
      "strictly": 6525,
      "ambitious": 6526,
      "outrageous": 6527,
      "!.": 6528,
      "ske": 6529,
      "infect": 6530,
      "icy": 6531,
      "rive": 6532,
      "fever": 6533,
      "ifying": 6534,
      "estate": 6535,
      "convol": 6536,
      "timeless": 6537,
      "prejud": 6538,
      "myth": 6539,
      "guide": 6540,
      "cra": 6541,
      "overlooked": 6542,
      "disease": 6543,
      "afterwards": 6544,
      "beings": 6545,
      "mato": 6546,
      "reluct": 6547,
      "worthless": 6548,
      "breasts": 6549,
      "slim": 6550,
      "brosn": 6551,
      "instantly": 6552,
      "pleasantly": 6553,
      "cruise": 6554,
      "joey": 6555,
      "digital": 6556,
      "kudos": 6557,
      "kidnapped": 6558,
      "jamie": 6559,
      "throat": 6560,
      "brosnan": 6561,
      "dled": 6562,
      "glow": 6563,
      "rd": 6564,
      "sg": 6565,
      "tier": 6566,
      "wright": 6567,
      "chen": 6568,
      "chand": 6569,
      "omin": 6570,
      "neo": 6571,
      "webs": 6572,
      "artific": 6573,
      "akshay": 6574,
      "partly": 6575,
      "pses": 6576,
      "buried": 6577,
      "corpse": 6578,
      "persona": 6579,
      "breed": 6580,
      "luc": 6581,
      "norman": 6582,
      "creators": 6583,
      "drey": 6584,
      "spoiled": 6585,
      "rifice": 6586,
      "importantly": 6587,
      "politic": 6588,
      "bullet": 6589,
      "competition": 6590,
      "pushed": 6591,
      "sacrifice": 6592,
      "garden": 6593,
      "tremendous": 6594,
      "presumably": 6595,
      "superficial": 6596,
      "ril": 6597,
      "returning": 6598,
      "lifest": 6599,
      "abc": 6600,
      "notes": 6601,
      "fears": 6602,
      "manu": 6603,
      "urai": 6604,
      "activ": 6605,
      "esty": 6606,
      "coy": 6607,
      "realise": 6608,
      "serving": 6609,
      "strang": 6610,
      "talked": 6611,
      "farce": 6612,
      "wondered": 6613,
      "temple": 6614,
      "superbly": 6615,
      "menacing": 6616,
      "morris": 6617,
      "parent": 6618,
      "generous": 6619,
      "photographed": 6620,
      "appalling": 6621,
      "flawless": 6622,
      "regardless": 6623,
      "loaded": 6624,
      "drunken": 6625,
      "individuals": 6626,
      "companion": 6627,
      "australia": 6628,
      "precise": 6629,
      "liberal": 6630,
      "eccentric": 6631,
      "arrested": 6632,
      "exaggerated": 6633,
      "conspiracy": 6634,
      "aforementioned": 6635,
      "cag": 6636,
      "hung": 6637,
      "mun": 6638,
      "tin": 6639,
      "aced": 6640,
      "scot": 6641,
      "coinc": 6642,
      "wonders": 6643,
      "highlights": 6644,
      "jewel": 6645,
      "audio": 6646,
      "slick": 6647,
      "drivel": 6648,
      "planning": 6649,
      "promised": 6650,
      "admire": 6651,
      "orders": 6652,
      "laws": 6653,
      "samurai": 6654,
      "narrator": 6655,
      "jumping": 6656,
      "falk": 6657,
      "frustrated": 6658,
      "accomplished": 6659,
      "wannabe": 6660,
      "mitchell": 6661,
      "gandhi": 6662,
      "nurse": 6663,
      "jealous": 6664,
      "ib": 6665,
      "muse": 6666,
      "resort": 6667,
      "stir": 6668,
      "icop": 6669,
      "height": 6670,
      "lix": 6671,
      "poll": 6672,
      "manhatt": 6673,
      "ellen": 6674,
      "boot": 6675,
      "veness": 6676,
      "characterization": 6677,
      "josh": 6678,
      "duo": 6679,
      "duck": 6680,
      "aze": 6681,
      "horrors": 6682,
      "helicop": 6683,
      "murray": 6684,
      "ticket": 6685,
      "distant": 6686,
      "annie": 6687,
      "beaten": 6688,
      "rapid": 6689,
      "bullets": 6690,
      "empire": 6691,
      "scientific": 6692,
      "draws": 6693,
      "smoke": 6694,
      "curiosity": 6695,
      "laurel": 6696,
      "achievement": 6697,
      "corporate": 6698,
      "affected": 6699,
      "miserably": 6700,
      "francisco": 6701,
      "electric": 6702,
      "piano": 6703,
      "houses": 6704,
      "spooky": 6705,
      "craig": 6706,
      "cagney": 6707,
      "35": 6708,
      "flies": 6709,
      "hmm": 6710,
      "oce": 6711,
      "punk": 6712,
      "uninspired": 6713,
      "unpleasant": 6714,
      "exposed": 6715,
      "perry": 6716,
      "enda": 6717,
      "consequences": 6718,
      "clues": 6719,
      "craven": 6720,
      "reasonably": 6721,
      "tones": 6722,
      "cameron": 6723,
      "distinct": 6724,
      "goldberg": 6725,
      "population": 6726,
      "repetitive": 6727,
      "attracted": 6728,
      "revealing": 6729,
      "territory": 6730,
      "alexander": 6731,
      "argument": 6732,
      "ironically": 6733,
      "accused": 6734,
      "snake": 6735,
      ",,": 6736,
      "dah": 6737,
      "lav": 6738,
      "tha": 6739,
      "inj": 6740,
      "isha": 6741,
      "resid": 6742,
      "armed": 6743,
      "stain": 6744,
      "ential": 6745,
      "lip": 6746,
      "peak": 6747,
      "defe": 6748,
      "antics": 6749,
      "watches": 6750,
      "clu": 6751,
      "distract": 6752,
      "ishes": 6753,
      "marke": 6754,
      "ensible": 6755,
      "opposed": 6756,
      "turner": 6757,
      "emily": 6758,
      "empath": 6759,
      "blob": 6760,
      "brea": 6761,
      "label": 6762,
      "shortly": 6763,
      "......": 6764,
      "failing": 6765,
      "souls": 6766,
      "indians": 6767,
      "doubted": 6768,
      "cats": 6769,
      "20th": 6770,
      "slightest": 6771,
      "response": 6772,
      "timo": 6773,
      "blows": 6774,
      "melodramatic": 6775,
      "discovery": 6776,
      "hatred": 6777,
      "griff": 6778,
      "motivation": 6779,
      "modesty": 6780,
      "psychiatrist": 6781,
      "manhattan": 6782,
      "dating": 6783,
      "fist": 6784,
      "foul": 6785,
      "nun": 6786,
      "tomato": 6787,
      "verho": 6788,
      "felix": 6789,
      "grav": 6790,
      "subplot": 6791,
      "cared": 6792,
      "wallow": 6793,
      "pulling": 6794,
      "lacked": 6795,
      "vicious": 6796,
      "credited": 6797,
      "possibility": 6798,
      "precious": 6799,
      "documentaries": 6800,
      "warrior": 6801,
      "dolph": 6802,
      "captivating": 6803,
      "installment": 6804,
      "subsequent": 6805,
      "directorial": 6806,
      "pseudo": 6807,
      "dracula": 6808,
      "convoluted": 6809,
      "bent": 6810,
      "mour": 6811,
      "rank": 6812,
      "tiger": 6813,
      "enchant": 6814,
      "arab": 6815,
      "bris": 6816,
      "oman": 6817,
      "ligh": 6818,
      "filling": 6819,
      "pear": 6820,
      "combat": 6821,
      "overdone": 6822,
      "horrid": 6823,
      "superhero": 6824,
      "2004": 6825,
      "aimed": 6826,
      "explored": 6827,
      "futuristic": 6828,
      "broadcast": 6829,
      "drawing": 6830,
      "psychotic": 6831,
      "tunes": 6832,
      "intrigued": 6833,
      "remaining": 6834,
      "ignored": 6835,
      "biography": 6836,
      "musc": 6837,
      "candid": 6838,
      "settling": 6839,
      "forbidden": 6840,
      "bite": 6841,
      "gimm": 6842,
      "kas": 6843,
      "ops": 6844,
      "encing": 6845,
      "staged": 6846,
      "liking": 6847,
      "kell": 6848,
      "holly": 6849,
      "notably": 6850,
      "worried": 6851,
      "spider": 6852,
      "blast": 6853,
      "backs": 6854,
      "taker": 6855,
      "coll": 6856,
      "imagined": 6857,
      "satir": 6858,
      "unky": 6859,
      "instit": 6860,
      "paulie": 6861,
      "repeatedly": 6862,
      "translation": 6863,
      "cringe": 6864,
      "obscure": 6865,
      "gadget": 6866,
      "elderly": 6867,
      "restaurant": 6868,
      "kitchen": 6869,
      "verhoeven": 6870,
      "'.<": 6871,
      "bc": 6872,
      "cig": 6873,
      "flee": 6874,
      "ix": 6875,
      "ika": 6876,
      "isation": 6877,
      "resur": 6878,
      "stard": 6879,
      "whale": 6880,
      "ables": 6881,
      "supre": 6882,
      "outcome": 6883,
      "soviet": 6884,
      "dee": 6885,
      "estic": 6886,
      "agan": 6887,
      "giallo": 6888,
      "glenn": 6889,
      "settle": 6890,
      "distance": 6891,
      "2003": 6892,
      "explore": 6893,
      "providing": 6894,
      "rambo": 6895,
      "crook": 6896,
      "gradually": 6897,
      "pushing": 6898,
      "loosely": 6899,
      "discussion": 6900,
      "juliet": 6901,
      "scope": 6902,
      "hysterical": 6903,
      "idiots": 6904,
      "margaret": 6905,
      "reduced": 6906,
      "dignity": 6907,
      "elaborate": 6908,
      "timothy": 6909,
      "griffith": 6910,
      "cried": 6911,
      "dave": 6912,
      "kris": 6913,
      "karen": 6914,
      "rics": 6915,
      "returned": 6916,
      "ingu": 6917,
      "logue": 6918,
      "gee": 6919,
      "clay": 6920,
      "anski": 6921,
      "carrie": 6922,
      "stiller": 6923,
      "pretend": 6924,
      "warren": 6925,
      "slave": 6926,
      "romero": 6927,
      "bury": 6928,
      "darker": 6929,
      "kenneth": 6930,
      "sunshine": 6931,
      "screams": 6932,
      "recognized": 6933,
      "sloppy": 6934,
      "wealth": 6935,
      "gimmick": 6936,
      "reli": 6937,
      "album": 6938,
      "staff": 6939,
      "chest": 6940,
      "sep": 6941,
      "adul": 6942,
      "uneven": 6943,
      "unbearable": 6944,
      "unbelievably": 6945,
      "roth": 6946,
      "areas": 6947,
      "suited": 6948,
      "guin": 6949,
      "donna": 6950,
      "uded": 6951,
      "ireland": 6952,
      "glamor": 6953,
      "formed": 6954,
      "hyp": 6955,
      "twel": 6956,
      "danes": 6957,
      "dancers": 6958,
      "heroic": 6959,
      "engaged": 6960,
      "purple": 6961,
      "builds": 6962,
      "extended": 6963,
      "wallace": 6964,
      "1930s": 6965,
      "defend": 6966,
      "contrary": 6967,
      "specif": 6968,
      "tortured": 6969,
      "commercials": 6970,
      "absence": 6971,
      "adoles": 6972,
      "altman": 6973,
      "yesterday": 6974,
      "50s": 6975,
      "baf": 6976,
      "hul": 6977,
      "hbo": 6978,
      "iveness": 6979,
      "tam": 6980,
      "ont": 6981,
      "assem": 6982,
      "chic": 6983,
      "mod": 6984,
      "forgiven": 6985,
      "improved": 6986,
      "trum": 6987,
      "inda": 6988,
      "psis": 6989,
      "matthew": 6990,
      "stole": 6991,
      "observ": 6992,
      "kings": 6993,
      "smug": 6994,
      "forms": 6995,
      "differences": 6996,
      "syno": 6997,
      "movements": 6998,
      "existed": 6999,
      "royal": 7000,
      "concerning": 7001,
      "lected": 7002,
      "hollow": 7003,
      "sales": 7004,
      "ranks": 7005,
      "kapoor": 7006,
      "reached": 7007,
      "require": 7008,
      "occurred": 7009,
      "mildred": 7010,
      "possessed": 7011,
      "construction": 7012,
      "choreography": 7013,
      "eyre": 7014,
      "landscape": 7015,
      "currently": 7016,
      "twelve": 7017,
      "daring": 7018,
      "rational": 7019,
      "yon": 7020,
      "zing": 7021,
      "inhabit": 7022,
      "outer": 7023,
      "lips": 7024,
      "unit": 7025,
      "decor": 7026,
      "anyways": 7027,
      "grass": 7028,
      "spare": 7029,
      "fulci": 7030,
      "overrated": 7031,
      "displays": 7032,
      "blake": 7033,
      "udge": 7034,
      "atten": 7035,
      "collabor": 7036,
      "sounding": 7037,
      "merit": 7038,
      "burned": 7039,
      "tommy": 7040,
      "oses": 7041,
      "beats": 7042,
      "secrets": 7043,
      "arrive": 7044,
      "bathroom": 7045,
      "nazis": 7046,
      "sacrific": 7047,
      "symbolism": 7048,
      "involvement": 7049,
      "journalist": 7050,
      "newspaper": 7051,
      "yellow": 7052,
      "cof": 7053,
      "dill": 7054,
      "gid": 7055,
      "imo": 7056,
      "nt": 7057,
      "argue": 7058,
      "ilted": 7059,
      "stare": 7060,
      "terry": 7061,
      "undoubted": 7062,
      "astro": 7063,
      "characteristic": 7064,
      "blend": 7065,
      "blunt": 7066,
      "nery": 7067,
      "cycle": 7068,
      "genres": 7069,
      "swear": 7070,
      "devast": 7071,
      "beatty": 7072,
      "cruci": 7073,
      "machines": 7074,
      "contained": 7075,
      "global": 7076,
      "demands": 7077,
      "greek": 7078,
      "resembles": 7079,
      "dynamic": 7080,
      "nicholson": 7081,
      "hamilton": 7082,
      "90s": 7083,
      "iently": 7084,
      "lun": 7085,
      "tame": 7086,
      "wag": 7087,
      "altogether": 7088,
      "/>'": 7089,
      "verted": 7090,
      "aman": 7091,
      "coast": 7092,
      "grain": 7093,
      "blade": 7094,
      "...)": 7095,
      "centered": 7096,
      "optim": 7097,
      "trio": 7098,
      "enjoys": 7099,
      "harder": 7100,
      "pulp": 7101,
      "cameras": 7102,
      "sadness": 7103,
      "sadistic": 7104,
      "bene": 7105,
      "exploit": 7106,
      "explosion": 7107,
      "lawrence": 7108,
      "ridiculously": 7109,
      "meaningless": 7110,
      "popcorn": 7111,
      "investigate": 7112,
      "punish": 7113,
      "dutch": 7114,
      "proceedings": 7115,
      "waters": 7116,
      "ruthless": 7117,
      "receive": 7118,
      "robots": 7119,
      "swedish": 7120,
      "threw": 7121,
      "innovative": 7122,
      "seventies": 7123,
      "website": 7124,
      "daddy": 7125,
      "echo": 7126,
      "vest": 7127,
      "thugs": 7128,
      "asion": 7129,
      "edly": 7130,
      "brig": 7131,
      "accompan": 7132,
      "icon": 7133,
      "imper": 7134,
      "defeat": 7135,
      "composed": 7136,
      "persu": 7137,
      "aux": 7138,
      "quel": 7139,
      "acknow": 7140,
      "istically": 7141,
      "grasp": 7142,
      "producing": 7143,
      "leton": 7144,
      "clothing": 7145,
      "closet": 7146,
      "voight": 7147,
      "humili": 7148,
      "hopper": 7149,
      "madonna": 7150,
      "photograph": 7151,
      "kenned": 7152,
      "********": 7153,
      "nett": 7154,
      "racial": 7155,
      "crocod": 7156,
      "mesmer": 7157,
      "intrigue": 7158,
      "square": 7159,
      "blowing": 7160,
      "models": 7161,
      "leonard": 7162,
      "fonda": 7163,
      "dinosaurs": 7164,
      "divorce": 7165,
      "atlantis": 7166,
      "synopsis": 7167,
      "\";": 7168,
      "22": 7169,
      "cd": 7170,
      "rural": 7171,
      "swi": 7172,
      "orches": 7173,
      "ental": 7174,
      "apt": 7175,
      "urbed": 7176,
      "pert": 7177,
      "plate": 7178,
      "aggress": 7179,
      "offering": 7180,
      "newcom": 7181,
      "fried": 7182,
      "embr": 7183,
      "bargain": 7184,
      "masters": 7185,
      "dialogues": 7186,
      "disturbed": 7187,
      "gging": 7188,
      "2007": 7189,
      "pays": 7190,
      "devoted": 7191,
      "zzy": 7192,
      "brains": 7193,
      "nicol": 7194,
      "escaped": 7195,
      "brady": 7196,
      "mountains": 7197,
      "conversations": 7198,
      "distracting": 7199,
      "assassin": 7200,
      "prostitute": 7201,
      "abysm": 7202,
      "juvenile": 7203,
      "coffee": 7204,
      "zilla": 7205,
      "react": 7206,
      "resto": 7207,
      "edie": 7208,
      "versus": 7209,
      "amuse": 7210,
      "elim": 7211,
      "excruci": 7212,
      "whoop": 7213,
      "worn": 7214,
      "1930": 7215,
      "sail": 7216,
      "kidding": 7217,
      "closed": 7218,
      "hypo": 7219,
      "nail": 7220,
      "cuba": 7221,
      "buddies": 7222,
      "murderous": 7223,
      "staying": 7224,
      "explosions": 7225,
      "cinematographer": 7226,
      "marty": 7227,
      "palma": 7228,
      "nearby": 7229,
      "senseless": 7230,
      "pressure": 7231,
      "odds": 7232,
      "latin": 7233,
      "banned": 7234,
      "penn": 7235,
      "immig": 7236,
      "answered": 7237,
      "cellu": 7238,
      "constructed": 7239,
      "lemmon": 7240,
      "====": 7241,
      "overwhelming": 7242,
      "philosophy": 7243,
      "excruciating": 7244,
      "3rd": 7245,
      "cary": 7246,
      "ique": 7247,
      "iser": 7248,
      "rees": 7249,
      "repul": 7250,
      "removed": 7251,
      "toys": 7252,
      "arc": 7253,
      "implausible": 7254,
      "unintentional": 7255,
      "roof": 7256,
      "elic": 7257,
      "guided": 7258,
      "march": 7259,
      "gian": 7260,
      "collap": 7261,
      "damage": 7262,
      "groups": 7263,
      "instant": 7264,
      "mistress": 7265,
      "homer": 7266,
      "detailed": 7267,
      "flop": 7268,
      "historic": 7269,
      "loads": 7270,
      "nightmares": 7271,
      "mickey": 7272,
      "mummy": 7273,
      "errors": 7274,
      "deliberately": 7275,
      "kennedy": 7276,
      "celluloid": 7277,
      "bread": 7278,
      "pants": 7279,
      "waves": 7280,
      "relies": 7281,
      "stack": 7282,
      "lope": 7283,
      "unwatchable": 7284,
      "solo": 7285,
      "goers": 7286,
      "exotic": 7287,
      "este": 7288,
      "awak": 7289,
      "belle": 7290,
      "subjects": 7291,
      "writes": 7292,
      "thoughtful": 7293,
      "classes": 7294,
      "careers": 7295,
      "hyper": 7296,
      "valu": 7297,
      "harvey": 7298,
      "causing": 7299,
      "bedroom": 7300,
      "confident": 7301,
      "promin": 7302,
      "scores": 7303,
      "explaining": 7304,
      "politically": 7305,
      "1996": 7306,
      "stalker": 7307,
      "officers": 7308,
      "survival": 7309,
      "opportun": 7310,
      "consistently": 7311,
      "jeffrey": 7312,
      "olivier": 7313,
      "influenced": 7314,
      "discuss": 7315,
      "resemblance": 7316,
      "lifting": 7317,
      "brooklyn": 7318,
      "vulgar": 7319,
      "florida": 7320,
      "ingredients": 7321,
      "cunning": 7322,
      "undoubtedly": 7323,
      "pink": 7324,
      "pars": 7325,
      "uh": 7326,
      "retain": 7327,
      "encour": 7328,
      "sele": 7329,
      "wizard": 7330,
      "rook": 7331,
      "hob": 7332,
      "doz": 7333,
      "plat": 7334,
      "consu": 7335,
      "props": 7336,
      "shin": 7337,
      "goodness": 7338,
      "wore": 7339,
      "awake": 7340,
      "bleed": 7341,
      "blues": 7342,
      "funeral": 7343,
      "surfing": 7344,
      "highest": 7345,
      "jection": 7346,
      "polanski": 7347,
      "chronic": 7348,
      "trees": 7349,
      "godzilla": 7350,
      "garner": 7351,
      "spirits": 7352,
      "facing": 7353,
      "tracks": 7354,
      "signs": 7355,
      "catches": 7356,
      "furthermore": 7357,
      "suitable": 7358,
      "primary": 7359,
      "winds": 7360,
      "remarkably": 7361,
      "succeeded": 7362,
      "hideous": 7363,
      "focusing": 7364,
      "duty": 7365,
      "scheme": 7366,
      "chaos": 7367,
      "colonel": 7368,
      "rubber": 7369,
      "clumsy": 7370,
      "hou": 7371,
      "lund": 7372,
      "wt": 7373,
      "represented": 7374,
      "itudes": 7375,
      "leans": 7376,
      "exor": 7377,
      "measure": 7378,
      "pros": 7379,
      "woo": 7380,
      "affection": 7381,
      "disjoint": 7382,
      "backdrop": 7383,
      "endings": 7384,
      "sentence": 7385,
      "sidekick": 7386,
      "secondly": 7387,
      "mixt": 7388,
      "generic": 7389,
      "defined": 7390,
      "smaller": 7391,
      "maggie": 7392,
      "gundam": 7393,
      "mysteries": 7394,
      "plicity": 7395,
      "1999": 7396,
      "1960": 7397,
      "kov": 7398,
      "travels": 7399,
      "rocket": 7400,
      "decisions": 7401,
      "employed": 7402,
      "revolutionary": 7403,
      "linda": 7404,
      "fetched": 7405,
      "principal": 7406,
      "winters": 7407,
      "blatant": 7408,
      "financial": 7409,
      "cart": 7410,
      "cingly": 7411,
      "gon": 7412,
      "hates": 7413,
      "khan": 7414,
      "yawn": 7415,
      "zes": 7416,
      "enem": 7417,
      "ala": 7418,
      "lyrics": 7419,
      "util": 7420,
      "forty": 7421,
      "decess": 7422,
      "devoid": 7423,
      "notion": 7424,
      "wet": 7425,
      "predecess": 7426,
      "offended": 7427,
      "directs": 7428,
      "fundam": 7429,
      "relations": 7430,
      "rukh": 7431,
      "painted": 7432,
      "covering": 7433,
      "fantas": 7434,
      "planned": 7435,
      "collect": 7436,
      "destiny": 7437,
      "honesty": 7438,
      "snip": 7439,
      "fluff": 7440,
      "circle": 7441,
      "streep": 7442,
      "desperation": 7443,
      "primarily": 7444,
      "recorded": 7445,
      "surviving": 7446,
      "practice": 7447,
      "enterprise": 7448,
      "flir": 7449,
      "frustration": 7450,
      "mobile": 7451,
      "stinker": 7452,
      "glorious": 7453,
      "unfolds": 7454,
      "doomed": 7455,
      "grinch": 7456,
      "lifestyle": 7457,
      "museum": 7458,
      "ocean": 7459,
      "beneath": 7460,
      "enemies": 7461,
      "bau": 7462,
      "egy": 7463,
      "hints": 7464,
      "ik": 7465,
      "jaf": 7466,
      "mcl": 7467,
      "insur": 7468,
      "iter": 7469,
      "stellar": 7470,
      "acies": 7471,
      "abh": 7472,
      "diane": 7473,
      "akin": 7474,
      "horrifying": 7475,
      "cheating": 7476,
      "performer": 7477,
      "nervous": 7478,
      "motives": 7479,
      "danie": 7480,
      "dances": 7481,
      "wax": 7482,
      "garbo": 7483,
      "undance": 7484,
      "countryside": 7485,
      "judging": 7486,
      "grandfather": 7487,
      "immort": 7488,
      "traveling": 7489,
      "subtlety": 7490,
      "terrorist": 7491,
      "communist": 7492,
      "celebrity": 7493,
      "montage": 7494,
      "shelf": 7495,
      "shirley": 7496,
      "wrestling": 7497,
      "inferior": 7498,
      "enormous": 7499,
      "gabriel": 7500,
      "artificial": 7501,
      "dozens": 7502,
      "disjointed": 7503,
      "mixture": 7504,
      "athan": 7505,
      "dil": 7506,
      "ears": 7507,
      "fon": 7508,
      "ibly": 7509,
      "nell": 7510,
      "rag": 7511,
      "trow": 7512,
      "uth": 7513,
      "ule": 7514,
      "uwe": 7515,
      "yn": 7516,
      "ée": 7517,
      "incompreh": 7518,
      "theo": 7519,
      "topless": 7520,
      "posure": 7521,
      "neuro": 7522,
      "urge": 7523,
      "prepar": 7524,
      "cler": 7525,
      "mayor": 7526,
      "obtain": 7527,
      "hardcore": 7528,
      "pax": 7529,
      "shake": 7530,
      "calm": 7531,
      "convincingly": 7532,
      "avoided": 7533,
      "developing": 7534,
      "possibilities": 7535,
      "domino": 7536,
      "matches": 7537,
      "trained": 7538,
      "babe": 7539,
      "melting": 7540,
      "describes": 7541,
      "mirac": 7542,
      "trailers": 7543,
      "reaches": 7544,
      "eighties": 7545,
      "inventive": 7546,
      "emphasis": 7547,
      "benefit": 7548,
      "immensely": 7549,
      "saga": 7550,
      "dazz": 7551,
      "honey": 7552,
      "iors": 7553,
      "jed": 7554,
      "mp": 7555,
      "thread": 7556,
      "recru": 7557,
      "ata": 7558,
      "enh": 7559,
      "enlight": 7560,
      "illogical": 7561,
      "chess": 7562,
      "oms": 7563,
      "whis": 7564,
      "acid": 7565,
      "vet": 7566,
      "adle": 7567,
      "amit": 7568,
      "amanda": 7569,
      "outfit": 7570,
      "ularly": 7571,
      "scroo": 7572,
      "april": 7573,
      "meg": 7574,
      "contrad": 7575,
      "diana": 7576,
      "timon": 7577,
      "agrees": 7578,
      "blew": 7579,
      "disappear": 7580,
      "blur": 7581,
      "berlin": 7582,
      "drain": 7583,
      "izable": 7584,
      "wont": 7585,
      "oph": 7586,
      "earned": 7587,
      "niro": 7588,
      "skull": 7589,
      "compens": 7590,
      "towns": 7591,
      "suspic": 7592,
      "soccer": 7593,
      "backgrounds": 7594,
      "angeles": 7595,
      "technic": 7596,
      "authority": 7597,
      "transport": 7598,
      "buffs": 7599,
      "iraq": 7600,
      "hartley": 7601,
      "glasses": 7602,
      "miserable": 7603,
      "adorable": 7604,
      "survivors": 7605,
      "simplistic": 7606,
      "hypnot": 7607,
      "specifically": 7608,
      "')": 7609,
      "cards": 7610,
      "pard": 7611,
      "rud": 7612,
      "rang": 7613,
      "infl": 7614,
      "anded": 7615,
      "edith": 7616,
      "heim": 7617,
      "rio": 7618,
      "illness": 7619,
      "dian": 7620,
      "agues": 7621,
      "proving": 7622,
      "grate": 7623,
      "lotte": 7624,
      "offs": 7625,
      "peoples": 7626,
      "steel": 7627,
      "parad": 7628,
      "simil": 7629,
      "phony": 7630,
      "useful": 7631,
      "solution": 7632,
      "menace": 7633,
      "lumet": 7634,
      "caly": 7635,
      "distingu": 7636,
      "judy": 7637,
      "commented": 7638,
      "faster": 7639,
      "kicked": 7640,
      "introduces": 7641,
      "hurts": 7642,
      "aids": 7643,
      "1940": 7644,
      "sellers": 7645,
      "rotten": 7646,
      "frustrating": 7647,
      "apocaly": 7648,
      "transformation": 7649,
      "choreographed": 7650,
      "corruption": 7651,
      "philosophical": 7652,
      "cg": 7653,
      "kn": 7654,
      "nons": 7655,
      "nuts": 7656,
      "anch": 7657,
      "republic": 7658,
      "orter": 7659,
      "moody": 7660,
      "imperson": 7661,
      "ambi": 7662,
      "lifel": 7663,
      "unreal": 7664,
      "unsettling": 7665,
      "pee": 7666,
      "nephe": 7667,
      "fru": 7668,
      "endure": 7669,
      "tee": 7670,
      "quotes": 7671,
      "igner": 7672,
      "displayed": 7673,
      "disappeared": 7674,
      "blan": 7675,
      "serge": 7676,
      "interaction": 7677,
      "mario": 7678,
      "faults": 7679,
      "viv": 7680,
      "lasted": 7681,
      "aneously": 7682,
      "elephant": 7683,
      "guessed": 7684,
      "????": 7685,
      "roller": 7686,
      "weakest": 7687,
      "!!!!!": 7688,
      "limits": 7689,
      "bergman": 7690,
      "banks": 7691,
      "lena": 7692,
      "trashy": 7693,
      "psychopath": 7694,
      "dedicated": 7695,
      "depressed": 7696,
      "species": 7697,
      "suffic": 7698,
      "formulaic": 7699,
      "jonathan": 7700,
      "chorus": 7701,
      "arrogant": 7702,
      "riveting": 7703,
      "cens": 7704,
      "gere": 7705,
      "rav": 7706,
      "rice": 7707,
      "tz": 7708,
      "inse": 7709,
      "thet": 7710,
      "aristo": 7711,
      "ros": 7712,
      "kel": 7713,
      "holo": 7714,
      "geo": 7715,
      "preview": 7716,
      "justify": 7717,
      "charlotte": 7718,
      "myr": 7719,
      "shee": 7720,
      "realizing": 7721,
      "fled": 7722,
      "flag": 7723,
      "rail": 7724,
      "lett": 7725,
      "hyde": 7726,
      "voiced": 7727,
      "cliche": 7728,
      "legit": 7729,
      "similarities": 7730,
      "questionable": 7731,
      "macarthur": 7732,
      "stereotype": 7733,
      "washed": 7734,
      "sandra": 7735,
      "nomination": 7736,
      "ethnic": 7737,
      "safety": 7738,
      "education": 7739,
      "frequent": 7740,
      "monkeys": 7741,
      "wendy": 7742,
      "functional": 7743,
      "isolated": 7744,
      "israel": 7745,
      "ponder": 7746,
      "pearl": 7747,
      "abysmal": 7748,
      "similarly": 7749,
      "gender": 7750,
      "kers": 7751,
      "sni": 7752,
      "yok": 7753,
      "inane": 7754,
      "enger": 7755,
      "bearing": 7756,
      "implic": 7757,
      "button": 7758,
      "poon": 7759,
      "pole": 7760,
      "pops": 7761,
      "scrap": 7762,
      "apple": 7763,
      "peror": 7764,
      "quer": 7765,
      "myers": 7766,
      "cope": 7767,
      "assy": 7768,
      "berry": 7769,
      "thru": 7770,
      "newly": 7771,
      "tribe": 7772,
      "emperor": 7773,
      "kingdom": 7774,
      "sawa": 7775,
      "gerald": 7776,
      "chron": 7777,
      "understandable": 7778,
      "gym": 7779,
      "considerable": 7780,
      "casual": 7781,
      "christy": 7782,
      "puer": 7783,
      "confidence": 7784,
      "rising": 7785,
      "snl": 7786,
      "treats": 7787,
      "1972": 7788,
      "campbell": 7789,
      "concern": 7790,
      "dolls": 7791,
      "bonus": 7792,
      "cracking": 7793,
      "stinks": 7794,
      "solely": 7795,
      "swimming": 7796,
      "dalton": 7797,
      "nostalgic": 7798,
      "conservative": 7799,
      "helicopter": 7800,
      "amitabh": 7801,
      "kent": 7802,
      "lic": 7803,
      "lain": 7804,
      "lately": 7805,
      "pals": 7806,
      "sits": 7807,
      "vice": 7808,
      "rec": 7809,
      "alert": 7810,
      "orson": 7811,
      "edgar": 7812,
      "stilted": 7813,
      "loren": 7814,
      "unhappy": 7815,
      "peters": 7816,
      "deaf": 7817,
      "ulate": 7818,
      "coward": 7819,
      "claus": 7820,
      "marion": 7821,
      "despair": 7822,
      "carrad": 7823,
      "downhill": 7824,
      "tonight": 7825,
      "simpson": 7826,
      "namely": 7827,
      "distin": 7828,
      "purchase": 7829,
      "ballet": 7830,
      "kyle": 7831,
      "dais": 7832,
      "profession": 7833,
      "embarrassment": 7834,
      "reaching": 7835,
      "gloss": 7836,
      "fooled": 7837,
      "foolish": 7838,
      "dickens": 7839,
      "incidentally": 7840,
      "ignorant": 7841,
      "comparing": 7842,
      "poetic": 7843,
      "quisite": 7844,
      ",<": 7845,
      "cav": 7846,
      "mers": 7847,
      "oly": 7848,
      "pom": 7849,
      "taught": 7850,
      "vance": 7851,
      "revers": 7852,
      "online": 7853,
      "attor": 7854,
      "assum": 7855,
      "ila": 7856,
      "vegas": 7857,
      "poo": 7858,
      "poem": 7859,
      "agreed": 7860,
      "ollie": 7861,
      "astically": 7862,
      "cancel": 7863,
      "wrap": 7864,
      "monot": 7865,
      "pretending": 7866,
      "vibr": 7867,
      "visits": 7868,
      "letters": 7869,
      "capturing": 7870,
      "waited": 7871,
      "ruby": 7872,
      "lacklust": 7873,
      "bands": 7874,
      "prize": 7875,
      "wished": 7876,
      "retro": 7877,
      "paltrow": 7878,
      "photos": 7879,
      "1983": 7880,
      "signed": 7881,
      "halluc": 7882,
      "appropriately": 7883,
      "krist": 7884,
      "arguably": 7885,
      "montana": 7886,
      "shelley": 7887,
      "motivations": 7888,
      "____": 7889,
      "stooges": 7890,
      "tiresome": 7891,
      "adolescent": 7892,
      "attorney": 7893,
      "rer": 7894,
      "sest": 7895,
      "sappy": 7896,
      "aling": 7897,
      "behave": 7898,
      "amid": 7899,
      "liar": 7900,
      "wig": 7901,
      "holl": 7902,
      "connery": 7903,
      "dixon": 7904,
      "agents": 7905,
      "joined": 7906,
      "bela": 7907,
      "raising": 7908,
      "staring": 7909,
      "glim": 7910,
      "borough": 7911,
      "closest": 7912,
      "tember": 7913,
      "dana": 7914,
      "humble": 7915,
      "luci": 7916,
      "generated": 7917,
      "christians": 7918,
      "dys": 7919,
      "transition": 7920,
      "schlock": 7921,
      "buildings": 7922,
      "gangsters": 7923,
      "delivering": 7924,
      "vengeance": 7925,
      "combine": 7926,
      "miracle": 7927,
      "cleverly": 7928,
      "prophe": 7929,
      "aaaa": 7930,
      "incest": 7931,
      "grotes": 7932,
      "stevens": 7933,
      "employe": 7934,
      "civilization": 7935,
      "virginia": 7936,
      "nause": 7937,
      "jenny": 7938,
      "destroying": 7939,
      "crocodile": 7940,
      "carradine": 7941,
      "dump": 7942,
      "gers": 7943,
      "oting": 7944,
      "swallow": 7945,
      "chak": 7946,
      "subl": 7947,
      "antino": 7948,
      "quie": 7949,
      "grie": 7950,
      "bett": 7951,
      "wrapped": 7952,
      "matically": 7953,
      "obli": 7954,
      "visions": 7955,
      "nathan": 7956,
      "morrow": 7957,
      "elect": 7958,
      "couples": 7959,
      "airport": 7960,
      "airplane": 7961,
      "engross": 7962,
      "patric": 7963,
      "summar": 7964,
      "secretly": 7965,
      "climactic": 7966,
      "hunters": 7967,
      "scottish": 7968,
      "wolves": 7969,
      "1968": 7970,
      "accuracy": 7971,
      "rupted": 7972,
      "arrived": 7973,
      "industrial": 7974,
      "conflicts": 7975,
      "robinson": 7976,
      "jumped": 7977,
      "educated": 7978,
      "sirk": 7979,
      "abraham": 7980,
      "gentleman": 7981,
      "alcoholic": 7982,
      "june": 7983,
      "guarantee": 7984,
      "phillip": 7985,
      "paranoia": 7986,
      "elegant": 7987,
      "pokemon": 7988,
      "september": 7989,
      "valuable": 7990,
      "lundgren": 7991,
      "scrooge": 7992,
      "\"!": 7993,
      "ethan": 7994,
      "jod": 7995,
      "juni": 7996,
      "tank": 7997,
      "uity": 7998,
      "wret": 7999,
      "wrench": 8000,
      "yell": 8001,
      "yelling": 8002,
      "eries": 8003,
      "molly": 8004,
      "abort": 8005,
      "trace": 8006,
      "exped": 8007,
      "exposure": 8008,
      "boli": 8009,
      "quin": 8010,
      "quent": 8011,
      "grind": 8012,
      "claust": 8013,
      "willis": 8014,
      "lowest": 8015,
      "marc": 8016,
      "misery": 8017,
      "cheated": 8018,
      "understated": 8019,
      "hello": 8020,
      "gerard": 8021,
      "spock": 8022,
      "syl": 8023,
      "creator": 8024,
      "ridden": 8025,
      "promises": 8026,
      "annoy": 8027,
      "richardson": 8028,
      "frankenstein": 8029,
      "annah": 8030,
      "waitress": 8031,
      "catching": 8032,
      "kicking": 8033,
      "raymond": 8034,
      "pene": 8035,
      "austen": 8036,
      "1960s": 8037,
      "dimension": 8038,
      "witches": 8039,
      "beliefs": 8040,
      "witnesses": 8041,
      "itors": 8042,
      "correctly": 8043,
      "audition": 8044,
      "naught": 8045,
      "analysis": 8046,
      "nicholas": 8047,
      "poetry": 8048,
      "exploration": 8049,
      "parallel": 8050,
      "phrase": 8051,
      "robbery": 8052,
      "chicago": 8053,
      "cue": 8054,
      "duch": 8055,
      "gum": 8056,
      "lers": 8057,
      "plight": 8058,
      "sas": 8059,
      "sung": 8060,
      "vall": 8061,
      "remarks": 8062,
      "oured": 8063,
      "arian": 8064,
      "nod": 8065,
      "lift": 8066,
      "ropho": 8067,
      "abusive": 8068,
      "sue": 8069,
      "goo": 8070,
      "dose": 8071,
      "fem": 8072,
      "map": 8073,
      "traff": 8074,
      "preced": 8075,
      "protest": 8076,
      "indic": 8077,
      "firstly": 8078,
      "descent": 8079,
      "desired": 8080,
      "centers": 8081,
      "simplicity": 8082,
      "stark": 8083,
      "visiting": 8084,
      "lette": 8085,
      "sabr": 8086,
      "persons": 8087,
      "invasion": 8088,
      "spoke": 8089,
      "greedy": 8090,
      "messed": 8091,
      "ushi": 8092,
      "copies": 8093,
      "logically": 8094,
      "prompt": 8095,
      "rocky": 8096,
      "thorn": 8097,
      "richards": 8098,
      "bottle": 8099,
      "equival": 8100,
      "potentially": 8101,
      "catchy": 8102,
      "literature": 8103,
      "fields": 8104,
      "advise": 8105,
      "designs": 8106,
      "germans": 8107,
      "ceiving": 8108,
      "survived": 8109,
      "brutally": 8110,
      "tunnel": 8111,
      "responsibility": 8112,
      "progresses": 8113,
      "advertising": 8114,
      "spread": 8115,
      "nostalgia": 8116,
      "taxi": 8117,
      "stallone": 8118,
      "vulnerable": 8119,
      "tomatoes": 8120,
      "restored": 8121,
      "egypt": 8122,
      "junior": 8123,
      "claustropho": 8124,
      ":-": 8125,
      "egg": 8126,
      "hk": 8127,
      "kuro": 8128,
      "lens": 8129,
      "wandering": 8130,
      "inappropriate": 8131,
      "incompetent": 8132,
      "issa": 8133,
      "reid": 8134,
      "recycl": 8135,
      "asto": 8136,
      "asia": 8137,
      "illegal": 8138,
      "seld": 8139,
      "bever": 8140,
      "rooney": 8141,
      "absent": 8142,
      "soder": 8143,
      "deer": 8144,
      "demented": 8145,
      "condem": 8146,
      "shre": 8147,
      "shield": 8148,
      "justin": 8149,
      "guitar": 8150,
      "showcase": 8151,
      "ptic": 8152,
      "marine": 8153,
      "rave": 8154,
      "ashley": 8155,
      "attitudes": 8156,
      "buzz": 8157,
      "farrell": 8158,
      "borg": 8159,
      "careful": 8160,
      "rows": 8161,
      "nails": 8162,
      "alongside": 8163,
      "casts": 8164,
      "depicts": 8165,
      "purchased": 8166,
      "operation": 8167,
      "louise": 8168,
      "hench": 8169,
      "frankie": 8170,
      "ritual": 8171,
      "experiments": 8172,
      "amounts": 8173,
      "recognition": 8174,
      "complexity": 8175,
      "issance": 8176,
      "lengthy": 8177,
      "eaten": 8178,
      "transc": 8179,
      "rendition": 8180,
      "chapter": 8181,
      "bacall": 8182,
      "vaguely": 8183,
      "advanced": 8184,
      "mclag": 8185,
      "aristocr": 8186,
      "legitim": 8187,
      "grotesque": 8188,
      "wretched": 8189,
      "3d": 8190,
      "mand": 8191,
      "pid": 8192,
      "rats": 8193,
      "tang": 8194,
      "yr": 8195,
      "reign": 8196,
      "tower": 8197,
      "edition": 8198,
      "ilight": 8199,
      "lex": 8200,
      "whack": 8201,
      "iceless": 8202,
      "detr": 8203,
      "mankind": 8204,
      "exhibit": 8205,
      "likewise": 8206,
      "boob": 8207,
      "betty": 8208,
      "drake": 8209,
      "horn": 8210,
      "carri": 8211,
      "smiling": 8212,
      "relatives": 8213,
      "polished": 8214,
      "gery": 8215,
      "twilight": 8216,
      "biased": 8217,
      "biko": 8218,
      "damon": 8219,
      "instinct": 8220,
      "opinions": 8221,
      "1973": 8222,
      "domestic": 8223,
      "floating": 8224,
      "petty": 8225,
      "prisoner": 8226,
      "prisoners": 8227,
      "terrorists": 8228,
      "arrival": 8229,
      "troops": 8230,
      "wisdom": 8231,
      "chicks": 8232,
      "neighbors": 8233,
      "transp": 8234,
      "buffalo": 8235,
      "grayson": 8236,
      "patients": 8237,
      "phantom": 8238,
      "intimate": 8239,
      "resources": 8240,
      "accompanied": 8241,
      "incomprehensible": 8242,
      "astound": 8243,
      "\"-": 8244,
      "..<": 8245,
      "cities": 8246,
      "hed": 8247,
      "mack": 8248,
      "sby": 8249,
      "wone": 8250,
      "revi": 8251,
      "tos": 8252,
      "alli": 8253,
      "orphan": 8254,
      "stale": 8255,
      "icia": 8256,
      "ams": 8257,
      "robe": 8258,
      "keen": 8259,
      "keith": 8260,
      "sume": 8261,
      "confin": 8262,
      "antwone": 8263,
      "quit": 8264,
      "provoc": 8265,
      "priceless": 8266,
      "viewings": 8267,
      "helpless": 8268,
      "classical": 8269,
      "carell": 8270,
      "barrel": 8271,
      "miy": 8272,
      "dreary": 8273,
      "lively": 8274,
      "wishing": 8275,
      "pattern": 8276,
      "suspicious": 8277,
      "inov": 8278,
      "dropping": 8279,
      "sensu": 8280,
      "respected": 8281,
      "equip": 8282,
      "appreciation": 8283,
      "recognizable": 8284,
      "detect": 8285,
      "fascinated": 8286,
      "witnessed": 8287,
      "substit": 8288,
      "imaginable": 8289,
      "losers": 8290,
      "proceeds": 8291,
      "manipulative": 8292,
      "alternate": 8293,
      "challenging": 8294,
      "barrymore": 8295,
      "jaws": 8296,
      "rhyth": 8297,
      "ensues": 8298,
      "rabbit": 8299,
      "basketball": 8300,
      "assault": 8301,
      "technicol": 8302,
      "bie": 8303,
      "fuss": 8304,
      "kie": 8305,
      "kans": 8306,
      "nand": 8307,
      "osing": 8308,
      "othel": 8309,
      "randy": 8310,
      "resident": 8311,
      "endo": 8312,
      "alison": 8313,
      "leth": 8314,
      "whit": 8315,
      "tered": 8316,
      "undeni": 8317,
      "butler": 8318,
      "pete": 8319,
      "scand": 8320,
      "exceed": 8321,
      "whats": 8322,
      "indiffer": 8323,
      "crum": 8324,
      "overlook": 8325,
      "overacting": 8326,
      "disgrace": 8327,
      "bergh": 8328,
      "parties": 8329,
      "flam": 8330,
      "nyc": 8331,
      "belushi": 8332,
      "simmons": 8333,
      "azaki": 8334,
      "visited": 8335,
      "subplots": 8336,
      "tempt": 8337,
      "walsh": 8338,
      "earl": 8339,
      "greed": 8340,
      "rude": 8341,
      "compelled": 8342,
      "masterful": 8343,
      "owen": 8344,
      "demonic": 8345,
      "property": 8346,
      "exceptionally": 8347,
      "millionaire": 8348,
      "assured": 8349,
      "satisfy": 8350,
      "widely": 8351,
      "13th": 8352,
      "alternative": 8353,
      "excessive": 8354,
      "ninja": 8355,
      "mundane": 8356,
      "equivalent": 8357,
      "othello": 8358,
      "73": 8359,
      "aes": 8360,
      "gwy": 8361,
      "mtv": 8362,
      "pha": 8363,
      "raf": 8364,
      "rangers": 8365,
      "tends": 8366,
      "zize": 8367,
      "reson": 8368,
      "alley": 8369,
      "/>***": 8370,
      "bean": 8371,
      "whim": 8372,
      "unle": 8373,
      "unaware": 8374,
      "wire": 8375,
      "irs": 8376,
      "compassion": 8377,
      "poser": 8378,
      "pocket": 8379,
      "illusion": 8380,
      "exquisite": 8381,
      "urity": 8382,
      "meas": 8383,
      "consequ": 8384,
      "seeks": 8385,
      "graham": 8386,
      "fabr": 8387,
      "gib": 8388,
      "performs": 8389,
      "!!!<": 8390,
      "insom": 8391,
      "nerd": 8392,
      "heading": 8393,
      "clip": 8394,
      "suspend": 8395,
      "sweat": 8396,
      "hilariously": 8397,
      "snatch": 8398,
      "1984": 8399,
      "julian": 8400,
      "crucial": 8401,
      "claiming": 8402,
      "servant": 8403,
      "angela": 8404,
      "dressing": 8405,
      "historically": 8406,
      "psychic": 8407,
      "channels": 8408,
      "defense": 8409,
      "squad": 8410,
      "campa": 8411,
      "thomp": 8412,
      "pix": 8413,
      "warmth": 8414,
      "www": 8415,
      "enthusiasm": 8416,
      "landscapes": 8417,
      "astron": 8418,
      "novak": 8419,
      "wacky": 8420,
      "wagner": 8421,
      "zizek": 8422,
      ")...": 8423,
      ".(": 8424,
      "30s": 8425,
      "75": 8426,
      "mam": 8427,
      "smar": 8428,
      "atom": 8429,
      "alfred": 8430,
      "orange": 8431,
      "orleans": 8432,
      "stad": 8433,
      "heights": 8434,
      "imitation": 8435,
      "ioni": 8436,
      "ids": 8437,
      "abby": 8438,
      "irrelevant": 8439,
      "therap": 8440,
      "maj": 8441,
      "plum": 8442,
      "weir": 8443,
      "consum": 8444,
      "prequel": 8445,
      "quinn": 8446,
      "cannon": 8447,
      "mentions": 8448,
      "coat": 8449,
      "spain": 8450,
      "awfully": 8451,
      "showdown": 8452,
      "distor": 8453,
      "willie": 8454,
      "specially": 8455,
      "carla": 8456,
      "monk": 8457,
      "simult": 8458,
      "chooses": 8459,
      "valley": 8460,
      "hara": 8461,
      "creativity": 8462,
      "eastern": 8463,
      "distress": 8464,
      "mentioning": 8465,
      "masterpieces": 8466,
      "pursuit": 8467,
      "sweep": 8468,
      "billed": 8469,
      "troubles": 8470,
      "popularity": 8471,
      "crystal": 8472,
      "1933": 8473,
      "recording": 8474,
      "randomly": 8475,
      "employ": 8476,
      "bumbling": 8477,
      "stretched": 8478,
      "cassave": 8479,
      "cassidy": 8480,
      "minimum": 8481,
      "watson": 8482,
      "methods": 8483,
      "fido": 8484,
      "demanding": 8485,
      "improvement": 8486,
      "survivor": 8487,
      "mechanical": 8488,
      "assigned": 8489,
      "pamela": 8490,
      "opportunities": 8491,
      "nonsens": 8492,
      "soderbergh": 8493,
      "thompson": 8494,
      "?'": 8495,
      "crip": 8496,
      "fers": 8497,
      "kne": 8498,
      "lest": 8499,
      "lang": 8500,
      "lush": 8501,
      "rance": 8502,
      "wu": 8503,
      "wang": 8504,
      "inating": 8505,
      "brush": 8506,
      "secut": 8507,
      "unoriginal": 8508,
      "elm": 8509,
      "compet": 8510,
      "perpet": 8511,
      "artic": 8512,
      "prev": 8513,
      "quant": 8514,
      "charged": 8515,
      "blings": 8516,
      "oppress": 8517,
      "lester": 8518,
      "evok": 8519,
      "ashi": 8520,
      "household": 8521,
      "meryl": 8522,
      "morbid": 8523,
      "ruins": 8524,
      "drif": 8525,
      "purposes": 8526,
      "damme": 8527,
      "ordered": 8528,
      "palace": 8529,
      "1987": 8530,
      "zeal": 8531,
      "shooto": 8532,
      "expressed": 8533,
      "introduce": 8534,
      "ramones": 8535,
      "regarded": 8536,
      "raines": 8537,
      "suffice": 8538,
      "caliber": 8539,
      "gifted": 8540,
      "wounded": 8541,
      "feminist": 8542,
      "brenda": 8543,
      "fidel": 8544,
      "borrowed": 8545,
      "travesty": 8546,
      "hippie": 8547,
      "scotland": 8548,
      "marketing": 8549,
      "empathy": 8550,
      "punishment": 8551,
      "whoopi": 8552,
      "nephew": 8553,
      "sabrina": 8554,
      "equipment": 8555,
      "bend": 8556,
      "crown": 8557,
      "gur": 8558,
      "jab": 8559,
      "tact": 8560,
      "witt": 8561,
      "inel": 8562,
      "idal": 8563,
      "unseen": 8564,
      "sugar": 8565,
      "mete": 8566,
      "ustinov": 8567,
      "fog": 8568,
      "!!<": 8569,
      "stargate": 8570,
      "valid": 8571,
      "moronic": 8572,
      "definition": 8573,
      "dreck": 8574,
      "xties": 8575,
      "fuller": 8576,
      "logan": 8577,
      "supported": 8578,
      "natal": 8579,
      "bike": 8580,
      "sixties": 8581,
      "milk": 8582,
      "checked": 8583,
      "fury": 8584,
      "judg": 8585,
      "boxer": 8586,
      "sched": 8587,
      "spacey": 8588,
      "1997": 8589,
      "businessman": 8590,
      "austin": 8591,
      "masses": 8592,
      "furious": 8593,
      "sensational": 8594,
      "testament": 8595,
      "package": 8596,
      "darren": 8597,
      "pitiful": 8598,
      "educational": 8599,
      "roots": 8600,
      "warriors": 8601,
      "receives": 8602,
      "eugene": 8603,
      "crawford": 8604,
      "championship": 8605,
      "kissing": 8606,
      "inducing": 8607,
      "kumar": 8608,
      "activities": 8609,
      "kurosawa": 8610,
      "mclaglen": 8611,
      "miyazaki": 8612,
      "campaign": 8613,
      "3000": 8614,
      "binder": 8615,
      "dates": 8616,
      "kil": 8617,
      "pour": 8618,
      "vom": 8619,
      "vial": 8620,
      "theor": 8621,
      "ancy": 8622,
      "aled": 8623,
      "ora": 8624,
      "ardo": 8625,
      "edgy": 8626,
      "behold": 8627,
      "unpredictable": 8628,
      "haust": 8629,
      "geek": 8630,
      "sustain": 8631,
      "composer": 8632,
      "pod": 8633,
      "mans": 8634,
      "exhaust": 8635,
      "wholly": 8636,
      "click": 8637,
      "greatness": 8638,
      "interests": 8639,
      "underlying": 8640,
      "obst": 8641,
      "positions": 8642,
      "columb": 8643,
      "laughably": 8644,
      "masks": 8645,
      "landing": 8646,
      "harmon": 8647,
      "lux": 8648,
      "depicting": 8649,
      "sissy": 8650,
      "archite": 8651,
      "2008": 8652,
      "balanced": 8653,
      "retired": 8654,
      "babies": 8655,
      "resulting": 8656,
      "doubts": 8657,
      "tarantino": 8658,
      "1993": 8659,
      "sunny": 8660,
      "holm": 8661,
      "stunned": 8662,
      "teaching": 8663,
      "squir": 8664,
      "nicole": 8665,
      "dirt": 8666,
      "assumed": 8667,
      "ovich": 8668,
      "puppet": 8669,
      "invented": 8670,
      "antonioni": 8671,
      "inevitably": 8672,
      "loyalty": 8673,
      "pierce": 8674,
      "integrity": 8675,
      "shangh": 8676,
      "deceased": 8677,
      "deniro": 8678,
      "shameless": 8679,
      "distribution": 8680,
      "ambiguous": 8681,
      "expedition": 8682,
      "seldom": 8683,
      "nonsensical": 8684,
      "!'": 8685,
      "!,": 8686,
      "95": 8687,
      "coff": 8688,
      "cattle": 8689,
      "fought": 8690,
      "hin": 8691,
      "mim": 8692,
      "rust": 8693,
      "sill": 8694,
      "sway": 8695,
      "uated": 8696,
      "inate": 8697,
      "encourage": 8698,
      "stable": 8699,
      "chu": 8700,
      "lev": 8701,
      "acity": 8702,
      "amused": 8703,
      "unfair": 8704,
      "oding": 8705,
      "plex": 8706,
      "uplifting": 8707,
      "joel": 8708,
      "woe": 8709,
      "marshall": 8710,
      "iley": 8711,
      "strangers": 8712,
      "shod": 8713,
      "belly": 8714,
      "ravel": 8715,
      "reader": 8716,
      "lasting": 8717,
      "alec": 8718,
      "polar": 8719,
      "vocal": 8720,
      "probable": 8721,
      "conditions": 8722,
      "twins": 8723,
      "merits": 8724,
      "romp": 8725,
      "shaky": 8726,
      "passable": 8727,
      "directions": 8728,
      "rises": 8729,
      "1971": 8730,
      "respective": 8731,
      "1995": 8732,
      "discovering": 8733,
      "suggested": 8734,
      "lampoon": 8735,
      "brutality": 8736,
      "assuming": 8737,
      "chicken": 8738,
      "healthy": 8739,
      "resolved": 8740,
      "experimental": 8741,
      "representation": 8742,
      "trademark": 8743,
      "reflection": 8744,
      "tasteless": 8745,
      "patience": 8746,
      "indulgent": 8747,
      "exorc": 8748,
      "meteor": 8749,
      "shanghai": 8750,
      "(..": 8751,
      "gau": 8752,
      "hut": 8753,
      "mber": 8754,
      "pill": 8755,
      "skept": 8756,
      "tip": 8757,
      "rehears": 8758,
      "ensure": 8759,
      "static": 8760,
      "chal": 8761,
      "leigh": 8762,
      "leather": 8763,
      "une": 8764,
      "unravel": 8765,
      "files": 8766,
      "keeper": 8767,
      "exchange": 8768,
      "connor": 8769,
      "antagon": 8770,
      "arty": 8771,
      "prey": 8772,
      "preston": 8773,
      "preposter": 8774,
      "grief": 8775,
      "grabs": 8776,
      "pron": 8777,
      "bla": 8778,
      "cream": 8779,
      "stuart": 8780,
      "slum": 8781,
      "slice": 8782,
      "generations": 8783,
      "victory": 8784,
      "amazon": 8785,
      "legacy": 8786,
      "malone": 8787,
      "adaptations": 8788,
      "immediate": 8789,
      "bridget": 8790,
      "resemble": 8791,
      "fishing": 8792,
      "companies": 8793,
      "significance": 8794,
      "narrow": 8795,
      "hawke": 8796,
      "wilderness": 8797,
      "robbins": 8798,
      "valentine": 8799,
      "baldwin": 8800,
      "femme": 8801,
      "technicolor": 8802,
      "ement": 8803,
      "lton": 8804,
      "rants": 8805,
      "tum": 8806,
      "uma": 8807,
      "wink": 8808,
      "infin": 8809,
      "inability": 8810,
      "reun": 8811,
      "rehas": 8812,
      "alicia": 8813,
      "edit": 8814,
      "ille": 8815,
      "oma": 8816,
      "mode": 8817,
      "vell": 8818,
      "tering": 8819,
      "eliness": 8820,
      "butter": 8821,
      "alled": 8822,
      "demise": 8823,
      "cecil": 8824,
      "ulated": 8825,
      "nemes": 8826,
      "proto": 8827,
      "shred": 8828,
      "clin": 8829,
      "disliked": 8830,
      "strings": 8831,
      "flair": 8832,
      "newman": 8833,
      "izations": 8834,
      "otion": 8835,
      "leted": 8836,
      "singers": 8837,
      "boyle": 8838,
      "aneous": 8839,
      "fathers": 8840,
      "burne": 8841,
      "gregory": 8842,
      "examination": 8843,
      "rifle": 8844,
      "delic": 8845,
      "husbands": 8846,
      "palance": 8847,
      "straightforward": 8848,
      "respectively": 8849,
      "subjected": 8850,
      "metro": 8851,
      "culmin": 8852,
      "senses": 8853,
      "christianity": 8854,
      "russia": 8855,
      "downey": 8856,
      "behaviour": 8857,
      "slip": 8858,
      "unexpectedly": 8859,
      "organized": 8860,
      "objective": 8861,
      "tacky": 8862,
      "bernard": 8863,
      "crazed": 8864,
      "astonishing": 8865,
      "bunny": 8866,
      "confrontation": 8867,
      "infected": 8868,
      "cigaret": 8869,
      "lackluster": 8870,
      "kansas": 8871,
      "40s": 8872,
      "bure": 8873,
      "caut": 8874,
      "gage": 8875,
      "gina": 8876,
      "mish": 8877,
      "oe": 8878,
      "ological": 8879,
      "wwe": 8880,
      "wides": 8881,
      "theart": 8882,
      "retr": 8883,
      "tomorrow": 8884,
      "leap": 8885,
      "icable": 8886,
      "gey": 8887,
      "sopran": 8888,
      "degrad": 8889,
      "cepts": 8890,
      "females": 8891,
      "neath": 8892,
      "exposition": 8893,
      "pling": 8894,
      "weather": 8895,
      "confir": 8896,
      "deranged": 8897,
      "coaster": 8898,
      "clau": 8899,
      "disci": 8900,
      "marked": 8901,
      "desires": 8902,
      "19th": 8903,
      "gency": 8904,
      "shoulders": 8905,
      "parade": 8906,
      "versity": 8907,
      "tripe": 8908,
      "bitch": 8909,
      "smack": 8910,
      "basinger": 8911,
      "controlled": 8912,
      "musician": 8913,
      "hyped": 8914,
      "sentinel": 8915,
      "bloom": 8916,
      "slut": 8917,
      "deserving": 8918,
      "undant": 8919,
      "refused": 8920,
      "asylum": 8921,
      "difficulties": 8922,
      "fascination": 8923,
      "primitive": 8924,
      "1936": 8925,
      "sharon": 8926,
      "foxx": 8927,
      "remained": 8928,
      "frightened": 8929,
      "lifted": 8930,
      "hackney": 8931,
      "ceremon": 8932,
      "chainsaw": 8933,
      "addicted": 8934,
      "stumbled": 8935,
      "tastes": 8936,
      "premiere": 8937,
      "kolchak": 8938,
      "fundamental": 8939,
      "dysfunctional": 8940,
      "provocative": 8941,
      "simultaneously": 8942,
      "architect": 8943,
      "sopranos": 8944,
      "4th": 8945,
      "awhile": 8946,
      "dile": 8947,
      "fade": 8948,
      "munch": 8949,
      "option": 8950,
      "ras": 8951,
      "saint": 8952,
      "uber": 8953,
      "vain": 8954,
      "wakes": 8955,
      "iner": 8956,
      "remakes": 8957,
      "itated": 8958,
      "andra": 8959,
      "bras": 8960,
      "whi": 8961,
      "noises": 8962,
      "liest": 8963,
      "rope": 8964,
      "abused": 8965,
      "sums": 8966,
      "riff": 8967,
      "sox": 8968,
      "framed": 8969,
      "august": 8970,
      "agenda": 8971,
      "ichi": 8972,
      "gris": 8973,
      "joins": 8974,
      "items": 8975,
      "cks": 8976,
      "interactions": 8977,
      "creen": 8978,
      "rena": 8979,
      "minus": 8980,
      "ensen": 8981,
      "raises": 8982,
      "underneath": 8983,
      "paramount": 8984,
      "comedians": 8985,
      "invited": 8986,
      "handling": 8987,
      "musicians": 8988,
      "gersh": 8989,
      "slack": 8990,
      "earnest": 8991,
      "presenting": 8992,
      "1988": 8993,
      "1978": 8994,
      "posters": 8995,
      "radical": 8996,
      "portions": 8997,
      "hungry": 8998,
      "teachers": 8999,
      "penny": 9000,
      "wildly": 9001,
      "complaints": 9002,
      "substant": 9003,
      "fifty": 9004,
      "apolo": 9005,
      "kidnap": 9006,
      "attered": 9007,
      "springer": 9008,
      "challenged": 9009,
      "bacon": 9010,
      "fingers": 9011,
      "caricatures": 9012,
      "precisely": 9013,
      "amusement": 9014,
      "paradise": 9015,
      "silliness": 9016,
      "hackneyed": 9017,
      "##": 9018,
      "28": 9019,
      "bars": 9020,
      "gap": 9021,
      "gger": 9022,
      "jacqu": 9023,
      "mick": 9024,
      "pad": 9025,
      "til": 9026,
      "trend": 9027,
      "esther": 9028,
      "stages": 9029,
      "chave": 9030,
      "acious": 9031,
      "hep": 9032,
      "unlikable": 9033,
      "abled": 9034,
      "haired": 9035,
      "riot": 9036,
      "conscience": 9037,
      "essa": 9038,
      "indication": 9039,
      "cancer": 9040,
      "getic": 9041,
      "duvall": 9042,
      "designer": 9043,
      "misleading": 9044,
      "choppy": 9045,
      "embar": 9046,
      "spoon": 9047,
      "curly": 9048,
      "moron": 9049,
      "releases": 9050,
      "coup": 9051,
      "calcul": 9052,
      "murdering": 9053,
      "roommate": 9054,
      "region": 9055,
      "hopkins": 9056,
      "policeman": 9057,
      "posey": 9058,
      "kyo": 9059,
      "1989": 9060,
      "homes": 9061,
      "loneliness": 9062,
      "literary": 9063,
      "teaches": 9064,
      "circus": 9065,
      "1939": 9066,
      "complaining": 9067,
      "absurdity": 9068,
      "celebration": 9069,
      "knocked": 9070,
      "praised": 9071,
      "aspiring": 9072,
      "clarke": 9073,
      "--------": 9074,
      "rendered": 9075,
      "muddled": 9076,
      "sketch": 9077,
      "democr": 9078,
      "chamberlain": 9079,
      "abrupt": 9080,
      "tierney": 9081,
      "coincidence": 9082,
      "clueless": 9083,
      "fantasies": 9084,
      "quietly": 9085,
      "beverly": 9086,
      "chavez": 9087,
      "hend": 9088,
      "jas": 9089,
      "lass": 9090,
      "pages": 9091,
      "vas": 9092,
      "vital": 9093,
      "vader": 9094,
      "enig": 9095,
      "enthr": 9096,
      "itur": 9097,
      "accompany": 9098,
      "acclaimed": 9099,
      "nolan": 9100,
      "entit": 9101,
      "forcing": 9102,
      "heist": 9103,
      "devices": 9104,
      "ulf": 9105,
      "quaid": 9106,
      "moreover": 9107,
      "sson": 9108,
      "affle": 9109,
      "dont": 9110,
      "realised": 9111,
      "thryn": 9112,
      "internal": 9113,
      "raid": 9114,
      "shoulder": 9115,
      "triple": 9116,
      "phones": 9117,
      "insip": 9118,
      "objects": 9119,
      "invites": 9120,
      "blacks": 9121,
      "vince": 9122,
      "steady": 9123,
      "shared": 9124,
      "heartfelt": 9125,
      "register": 9126,
      "tracking": 9127,
      "profanity": 9128,
      "mccoy": 9129,
      "opers": 9130,
      "1986": 9131,
      "schne": 9132,
      "1979": 9133,
      "placing": 9134,
      "dresses": 9135,
      "occasions": 9136,
      "minister": 9137,
      "terminator": 9138,
      "contempt": 9139,
      "compliment": 9140,
      "adopted": 9141,
      "automatically": 9142,
      "freaks": 9143,
      "laurence": 9144,
      "biograph": 9145,
      "lindsay": 9146,
      "ratso": 9147,
      "translated": 9148,
      "citizens": 9149,
      "conviction": 9150,
      "inexplicably": 9151,
      "glamorous": 9152,
      "attenborough": 9153,
      "shoddy": 9154,
      "preposterous": 9155,
      "nemesis": 9156,
      "insipid": 9157,
      "23": 9158,
      "dwar": 9159,
      "fart": 9160,
      "paz": 9161,
      "rug": 9162,
      "sig": 9163,
      "tapes": 9164,
      "uri": 9165,
      "ume": 9166,
      "isle": 9167,
      "recon": 9168,
      "attribut": 9169,
      "org": 9170,
      "stim": 9171,
      "chim": 9172,
      "accepts": 9173,
      "nol": 9174,
      "impro": 9175,
      "uncut": 9176,
      "filth": 9177,
      "gear": 9178,
      "outfits": 9179,
      "detract": 9180,
      "tram": 9181,
      "auf": 9182,
      "timber": 9183,
      "tet": 9184,
      "mytho": 9185,
      "canyon": 9186,
      "grudge": 9187,
      "spray": 9188,
      "cles": 9189,
      "guests": 9190,
      "tyler": 9191,
      "cram": 9192,
      "fling": 9193,
      "carli": 9194,
      "otto": 9195,
      "steam": 9196,
      "screens": 9197,
      "youngest": 9198,
      "additional": 9199,
      "counting": 9200,
      "runner": 9201,
      "yeti": 9202,
      "slam": 9203,
      "secondary": 9204,
      "caust": 9205,
      "skits": 9206,
      "heartbreaking": 9207,
      "mothers": 9208,
      "traits": 9209,
      "ladder": 9210,
      "sleaze": 9211,
      "swee": 9212,
      "beatles": 9213,
      "!\"<": 9214,
      "posted": 9215,
      "constit": 9216,
      "referred": 9217,
      "positively": 9218,
      "darn": 9219,
      "chills": 9220,
      "rosemary": 9221,
      "chuckle": 9222,
      "categor": 9223,
      "scoop": 9224,
      "ignorance": 9225,
      "hughes": 9226,
      "hopelessly": 9227,
      "oriented": 9228,
      "daniels": 9229,
      "paxton": 9230,
      "grateful": 9231,
      "naughty": 9232,
      "$$": 9233,
      "(!)": 9234,
      "(?)": 9235,
      "bass": 9236,
      "gillian": 9237,
      "hound": 9238,
      "jur": 9239,
      "kle": 9240,
      "kline": 9241,
      "kitty": 9242,
      "mason": 9243,
      "opt": 9244,
      "opp": 9245,
      "restrict": 9246,
      "tops": 9247,
      "asi": 9248,
      "beware": 9249,
      "lois": 9250,
      "ghan": 9251,
      "popping": 9252,
      "odle": 9253,
      "ctic": 9254,
      "preming": 9255,
      "indy": 9256,
      "spont": 9257,
      "clad": 9258,
      "disastr": 9259,
      "firing": 9260,
      "realm": 9261,
      "martha": 9262,
      "taine": 9263,
      "misguided": 9264,
      "effic": 9265,
      "warrant": 9266,
      "commander": 9267,
      "corpses": 9268,
      "jews": 9269,
      "stern": 9270,
      "odys": 9271,
      "leaders": 9272,
      "motive": 9273,
      "recommendation": 9274,
      "generate": 9275,
      "bros": 9276,
      "christine": 9277,
      "deserted": 9278,
      "grounds": 9279,
      "soup": 9280,
      "suspension": 9281,
      "refu": 9282,
      "fitz": 9283,
      "1969": 9284,
      "conventions": 9285,
      "maxim": 9286,
      "gambling": 9287,
      "admirable": 9288,
      "challenges": 9289,
      "brendan": 9290,
      "quarter": 9291,
      "bronson": 9292,
      "betrayal": 9293,
      "severely": 9294,
      "muppet": 9295,
      "restrained": 9296,
      "rejected": 9297,
      "reluctant": 9298,
      "glowing": 9299,
      "insurance": 9300,
      "patricia": 9301,
      "renaissance": 9302,
      "preminger": 9303,
      "igo": 9304,
      "mph": 9305,
      "ored": 9306,
      "sassy": 9307,
      "tabo": 9308,
      "wander": 9309,
      "inconsistent": 9310,
      "enhan": 9311,
      "encies": 9312,
      "brat": 9313,
      "loa": 9314,
      "loret": 9315,
      "forgi": 9316,
      "filler": 9317,
      "abu": 9318,
      "suz": 9319,
      "deleted": 9320,
      "comings": 9321,
      "macho": 9322,
      "activity": 9323,
      "disappears": 9324,
      "offend": 9325,
      "angst": 9326,
      "belt": 9327,
      "mayhem": 9328,
      "chew": 9329,
      "underworld": 9330,
      "stores": 9331,
      "stopping": 9332,
      "farmer": 9333,
      "completed": 9334,
      "kidman": 9335,
      "mermaid": 9336,
      "morse": 9337,
[...]
